[UNK]	0
[PAD]	0
[BOS]	0
[EOS]	0
[CLS]	0
[SEP]	0
[MASK]	0
<0x00>	0
<0x01>	0
<0x02>	0
<0x03>	0
<0x04>	0
<0x05>	0
<0x06>	0
<0x07>	0
<0x08>	0
<0x09>	0
<0x0A>	0
<0x0B>	0
<0x0C>	0
<0x0D>	0
<0x0E>	0
<0x0F>	0
<0x10>	0
<0x11>	0
<0x12>	0
<0x13>	0
<0x14>	0
<0x15>	0
<0x16>	0
<0x17>	0
<0x18>	0
<0x19>	0
<0x1A>	0
<0x1B>	0
<0x1C>	0
<0x1D>	0
<0x1E>	0
<0x1F>	0
<0x20>	0
<0x21>	0
<0x22>	0
<0x23>	0
<0x24>	0
<0x25>	0
<0x26>	0
<0x27>	0
<0x28>	0
<0x29>	0
<0x2A>	0
<0x2B>	0
<0x2C>	0
<0x2D>	0
<0x2E>	0
<0x2F>	0
<0x30>	0
<0x31>	0
<0x32>	0
<0x33>	0
<0x34>	0
<0x35>	0
<0x36>	0
<0x37>	0
<0x38>	0
<0x39>	0
<0x3A>	0
<0x3B>	0
<0x3C>	0
<0x3D>	0
<0x3E>	0
<0x3F>	0
<0x40>	0
<0x41>	0
<0x42>	0
<0x43>	0
<0x44>	0
<0x45>	0
<0x46>	0
<0x47>	0
<0x48>	0
<0x49>	0
<0x4A>	0
<0x4B>	0
<0x4C>	0
<0x4D>	0
<0x4E>	0
<0x4F>	0
<0x50>	0
<0x51>	0
<0x52>	0
<0x53>	0
<0x54>	0
<0x55>	0
<0x56>	0
<0x57>	0
<0x58>	0
<0x59>	0
<0x5A>	0
<0x5B>	0
<0x5C>	0
<0x5D>	0
<0x5E>	0
<0x5F>	0
<0x60>	0
<0x61>	0
<0x62>	0
<0x63>	0
<0x64>	0
<0x65>	0
<0x66>	0
<0x67>	0
<0x68>	0
<0x69>	0
<0x6A>	0
<0x6B>	0
<0x6C>	0
<0x6D>	0
<0x6E>	0
<0x6F>	0
<0x70>	0
<0x71>	0
<0x72>	0
<0x73>	0
<0x74>	0
<0x75>	0
<0x76>	0
<0x77>	0
<0x78>	0
<0x79>	0
<0x7A>	0
<0x7B>	0
<0x7C>	0
<0x7D>	0
<0x7E>	0
<0x7F>	0
<0x80>	0
<0x81>	0
<0x82>	0
<0x83>	0
<0x84>	0
<0x85>	0
<0x86>	0
<0x87>	0
<0x88>	0
<0x89>	0
<0x8A>	0
<0x8B>	0
<0x8C>	0
<0x8D>	0
<0x8E>	0
<0x8F>	0
<0x90>	0
<0x91>	0
<0x92>	0
<0x93>	0
<0x94>	0
<0x95>	0
<0x96>	0
<0x97>	0
<0x98>	0
<0x99>	0
<0x9A>	0
<0x9B>	0
<0x9C>	0
<0x9D>	0
<0x9E>	0
<0x9F>	0
<0xA0>	0
<0xA1>	0
<0xA2>	0
<0xA3>	0
<0xA4>	0
<0xA5>	0
<0xA6>	0
<0xA7>	0
<0xA8>	0
<0xA9>	0
<0xAA>	0
<0xAB>	0
<0xAC>	0
<0xAD>	0
<0xAE>	0
<0xAF>	0
<0xB0>	0
<0xB1>	0
<0xB2>	0
<0xB3>	0
<0xB4>	0
<0xB5>	0
<0xB6>	0
<0xB7>	0
<0xB8>	0
<0xB9>	0
<0xBA>	0
<0xBB>	0
<0xBC>	0
<0xBD>	0
<0xBE>	0
<0xBF>	0
<0xC0>	0
<0xC1>	0
<0xC2>	0
<0xC3>	0
<0xC4>	0
<0xC5>	0
<0xC6>	0
<0xC7>	0
<0xC8>	0
<0xC9>	0
<0xCA>	0
<0xCB>	0
<0xCC>	0
<0xCD>	0
<0xCE>	0
<0xCF>	0
<0xD0>	0
<0xD1>	0
<0xD2>	0
<0xD3>	0
<0xD4>	0
<0xD5>	0
<0xD6>	0
<0xD7>	0
<0xD8>	0
<0xD9>	0
<0xDA>	0
<0xDB>	0
<0xDC>	0
<0xDD>	0
<0xDE>	0
<0xDF>	0
<0xE0>	0
<0xE1>	0
<0xE2>	0
<0xE3>	0
<0xE4>	0
<0xE5>	0
<0xE6>	0
<0xE7>	0
<0xE8>	0
<0xE9>	0
<0xEA>	0
<0xEB>	0
<0xEC>	0
<0xED>	0
<0xEE>	0
<0xEF>	0
<0xF0>	0
<0xF1>	0
<0xF2>	0
<0xF3>	0
<0xF4>	0
<0xF5>	0
<0xF6>	0
<0xF7>	0
<0xF8>	0
<0xF9>	0
<0xFA>	0
<0xFB>	0
<0xFC>	0
<0xFD>	0
<0xFE>	0
<0xFF>	0
ар	-0
ан	-1
▁б	-2
ал	-3
ын	-4
▁ж	-5
ер	-6
ен	-7
▁қ	-8
▁т	-9
ін	-10
ды	-11
да	-12
▁к	-13
ас	-14
▁с	-15
ты	-16
де	-17
ді	-18
▁м	-19
ет	-20
ай	-21
ат	-22
ыл	-23
ол	-24
ақ	-25
▁о	-26
ек	-27
ық	-28
ел	-29
ст	-30
ау	-31
ір	-32
іл	-33
ың	-34
ес	-35
ған	-36
ыс	-37
ам	-38
аз	-39
▁ө	-40
не	-41
ім	-42
ғы	-43
із	-44
ік	-45
ия	-46
ға	-47
ыз	-48
ым	-49
ем	-50
ің	-51
ұр	-52
▁ш	-53
▁А	-54
ында	-55
дар	-56
ор	-57
▁п	-58
▁Қ	-59
▁кө	-60
▁бол	-61
▁Б	-62
ге	-63
▁ә	-64
ып	-65
▁де	-66
тар	-67
ап	-68
ыр	-69
▁ал	-70
гі	-71
ады	-72
▁жә	-73
он	-74
ген	-75
▁және	-76
тер	-77
аб	-78
ин	-79
▁ү	-80
▁а	-81
▁С	-82
ей	-83
дың	-84
ының	-85
алық	-86
ті	-87
ұл	-88
інде	-89
ик	-90
ағ	-91
▁«	-92
ең	-93
аң	-94
дан	-95
▁бас	-96
дер	-97
тыр	-98
үр	-99
те	-100
..	-101
▁М	-102
ына	-103
▁О	-104
▁бір	-105
іп	-106
▁д	-107
▁ор	-108
▁ар	-109
▁-	-110
ур	-111
ез	-112
лық	-113
▁Ж	-114
▁Т	-115
▁К	-116
▁мен	-117
іс	-118
алар	-119
лар	-120
та	-121
інің	-122
▁р	-123
▁да	-124
еді	-125
ша	-126
ой	-127
ом	-128
▁ай	-129
дің	-130
дық	-131
▁жыл	-132
▁н	-133
сы	-134
азақ	-135
стан	-136
қа	-137
▁ұ	-138
алы	-139
▁қал	-140
ның	-141
мен	-142
▁–	-143
тық	-144
▁өз	-145
▁қар	-146
▁(	-147
дай	-148
аты	-149
ту	-150
ов	-151
шыл	-152
▁ау	-153
▁бар	-154
тан	-155
іне	-156
атын	-157
▁бер	-158
ос	-159
асы	-160
ден	-161
▁не	-162
ұм	-163
▁кел	-164
▁з	-165
өл	-166
кен	-167
мет	-168
▁кү	-169
▁жас	-170
ция	-171
▁үш	-172
▁көр	-173
▁Е	-174
лер	-175
ығ	-176
еу	-177
▁х	-178
ог	-179
тың	-180
▁ат	-181
гіз	-182
▁құр	-183
дам	-184
тік	-185
▁тү	-186
▁қыз	-187
әр	-188
қан	-189
бл	-190
дік	-191
▁жұм	-192
▁Қазақ	-193
▁үшін	-194
ке	-195
әс	-196
▁кез	-197
есе	-198
▁оқ	-199
ру	-200
лек	-201
лі	-202
▁жо	-203
гер	-204
ші	-205
▁ол	-206
...	-207
▁біл	-208
▁сал	-209
▁қол	-210
ит	-211
лан	-212
▁бой	-213
етін	-214
▁деп	-215
▁Д	-216
▁Р	-217
▁тұр	-218
▁Ал	-219
▁құ	-220
нал	-221
▁П	-222
▁э	-223
▁ек	-224
▁Қазақстан	-225
ынша	-226
лік	-227
іст	-228
▁жү	-229
кер	-230
▁ф	-231
▁тур	-232
іш	-233
тал	-234
ев	-235
ерек	-236
▁Н	-237
▁ас	-238
ыт	-239
▁мү	-240
ары	-241
гін	-242
▁адам	-243
▁и	-244
еш	-245
икалық	-246
▁өт	-247
лы	-248
▁ақ	-249
▁Ә	-250
елер	-251
▁ет	-252
▁қызмет	-253
▁бөл	-254
▁жүр	-255
ымен	-256
▁со	-257
▁тар	-258
аған	-259
айды	-260
▁әр	-261
▁бойынша	-262
ындағы	-263
ағы	-264
өз	-265
▁у	-266
▁түр	-267
есі	-268
▁жұмыс	-269
▁жет	-270
ынан	-271
ілік	-272
уы	-273
уға	-274
▁пр	-275
ест	-276
кін	-277
ил	-278
▁туралы	-279
дағы	-280
ны	-281
им	-282
▁ел	-283
қар	-284
емлек	-285
▁күн	-286
емлекет	-287
пар	-288
▁бай	-289
▁отыр	-290
▁ғ	-291
оп	-292
▁бал	-293
▁г	-294
тау	-295
шы	-296
ысы	-297
ак	-298
▁түс	-299
▁пай	-300
▁Ш	-301
▁жағ	-302
из	-303
тің	-304
там	-305
ая	-306
▁қор	-307
ілі	-308
▁мә	-309
▁таб	-310
▁өн	-311
дал	-312
шылар	-313
олог	-314
тын	-315
сын	-316
их	-317
▁бұл	-318
▁...	-319
▁шығ	-320
аны	-321
▁ем	-322
ист	-323
▁Бұл	-324
▁қо	-325
▁жер	-326
ед	-327
сет	-328
▁қа	-329
▁ой	-330
▁дей	-331
▁қай	-332
ше	-333
▁ан	-334
▁жар	-335
▁әл	-336
▁жол	-337
аттар	-338
▁көрсет	-339
қы	-340
стар	-341
__	-342
би	-343
▁болады	-344
▁жаң	-345
иялық	-346
қыл	-347
бек	-348
▁бағ	-349
▁болып	-350
кім	-351
асының	-352
дір	-353
ти	-354
жет	-355
ілер	-356
ни	-357
▁в	-358
▁Ө	-359
▁"	-360
▁ком	-361
сіз	-362
ика	-363
▁ең	-364
▁бел	-365
▁деген	-366
ылым	-367
тап	-368
▁кей	-369
▁жаз	-370
▁үй	-371
мкін	-372
▁шар	-373
▁те	-374
▁олар	-375
▁ин	-376
▁тө	-377
атыс	-378
▁қаб	-379
▁мемлекет	-380
▁нем	-381
▁мүмкін	-382
еб	-383
асында	-384
▁оқу	-385
імен	-386
▁көп	-387
ра	-388
▁іс	-389
▁дам	-390
▁жағдай	-391
аның	-392
▁рет	-393
▁жақ	-394
▁негіз	-395
есп	-396
▁обл	-397
тыру	-398
ба	-399
ул	-400
пен	-401
▁тіл	-402
ылған	-403
еп	-404
уге	-405
імді	-406
екте	-407
▁жат	-408
▁қос	-409
ма	-410
▁керек	-411
▁немесе	-412
са	-413
▁қан	-414
▁аз	-415
▁сә	-416
▁И	-417
ир	-418
дары	-419
аш	-420
▁жал	-421
убл	-422
▁қат	-423
ок	-424
йым	-425
мір	-426
тас	-427
інен	-428
іміз	-429
▁іш	-430
хан	-431
дау	-432
ақты	-433
кіз	-434
▁тал	-435
▁ер	-436
тор	-437
тр	-438
▁мақ	-439
лам	-440
ег	-441
кі	-442
▁ти	-443
▁байлан	-444
▁болған	-445
ғал	-446
еспубл	-447
▁емес	-448
▁сөз	-449
▁шығар	-450
бір	-451
▁жылы	-452
аман	-453
▁оның	-454
▁қазақ	-455
ілген	-456
дыр	-457
ғын	-458
▁қатыс	-459
▁л	-460
асын	-461
ылады	-462
▁Г	-463
▁Сон	-464
▁дейін	-465
үй	-466
ысты	-467
▁мұ	-468
▁орын	-469
ақыт	-470
▁қолдан	-471
▁ұл	-472
тен	-473
дегі	-474
ығы	-475
еге	-476
▁осы	-477
аңыз	-478
ип	-479
індегі	-480
▁кет	-481
нің	-482
▁білім	-483
ттық	-484
тін	-485
сер	-486
▁сай	-487
▁эк	-488
▁үл	-489
ғам	-490
▁екен	-491
▁сон	-492
шылық	-493
еттер	-494
ман	-495
өн	-496
▁су	-497
қылы	-498
▁Х	-499
▁Ұ	-500
▁қажет	-501
▁беру	-502
▁—	-503
▁жан	-504
теу	-505
▁жүй	-506
▁кейін	-507
▁тол	-508
парат	-509
▁сан	-510
ерт	-511
ақтар	-512
ынды	-513
▁кезде	-514
дас	-515
▁біз	-516
▁қам	-517
▁сақ	-518
▁Бір	-519
▁есе	-520
хн	-521
дері	-522
ыңыз	-523
▁ес	-524
▁халық	-525
▁тұ	-526
▁тә	-527
ыту	-528
▁тап	-529
▁арқылы	-530
лем	-531
▁ұйым	-532
ттер	-533
▁тең	-534
▁алу	-535
ақыр	-536
▁іст	-537
аға	-538
еж	-539
әсел	-540
▁жаңа	-541
▁аудан	-542
▁болды	-543
▁ту	-544
сат	-545
▁қой	-546
лау	-547
▁айт	-548
▁жоқ	-549
деу	-550
оном	-551
оқ	-552
ис	-553
▁Республ	-554
▁кең	-555
абар	-556
ология	-557
сыз	-558
▁қаз	-559
▁жау	-560
▁ен	-561
ыстар	-562
әсіп	-563
пан	-564
▁жүргіз	-565
бай	-566
▁өмір	-567
інші	-568
тыл	-569
оз	-570
▁анық	-571
▁тер	-572
дардың	-573
»,	-574
▁ая	-575
далан	-576
▁бұ	-577
от	-578
ыш	-579
ымыз	-580
ация	-581
▁көз	-582
▁уақыт	-583
▁облыс	-584
▁дә	-585
налған	-586
нан	-587
ісі	-588
▁тәр	-589
▁В	-590
▁тан	-591
▁Ол	-592
▁жоғ	-593
▁би	-594
▁мемлекеттік	-595
▁басқа	-596
▁орт	-597
еті	-598
тай	-599
▁N	-600
ілді	-601
▁екі	-602
▁тек	-603
иал	-604
▁Республик	-605
▁мәсел	-606
▁белг	-607
▁хабар	-608
об	-609
ада	-610
▁пайдалан	-611
баев	-612
▁про	-613
▁өс	-614
иц	-615
бас	-616
тір	-617
іңіз	-618
дел	-619
▁арналған	-620
▁мекте	-621
▁сұр	-622
тары	-623
шілік	-624
▁заң	-625
мақ	-626
елі	-627
▁өл	-628
▁сол	-629
елік	-630
дыру	-631
▁қау	-632
▁жөн	-633
▁Ақ	-634
▁соң	-635
▁таң	-636
▁сіз	-637
ав	-638
пы	-639
▁пен	-640
арт	-641
▁байланысты	-642
ғаш	-643
еке	-644
▁бұр	-645
▁жүз	-646
ейді	-647
асыз	-648
орт	-649
атыр	-650
▁түсін	-651
▁Ф	-652
▁шеш	-653
дей	-654
▁қатар	-655
▁басқар	-656
ион	-657
еумет	-658
абақ	-659
мек	-660
ах	-661
▁Пр	-662
▁Ү	-663
▁он	-664
▁бағдар	-665
ий	-666
атты	-667
▁Мұ	-668
маты	-669
уі	-670
ғана	-671
▁Қаз	-672
▁ғылым	-673
▁тарих	-674
сыр	-675
▁сын	-676
бер	-677
▁ғана	-678
▁қоғам	-679
____	-680
▁мин	-681
▁топ	-682
імдер	-683
сында	-684
ск	-685
истр	-686
▁есеп	-687
еген	-688
▁әкім	-689
▁қалып	-690
▁аш	-691
есін	-692
▁өте	-693
▁қабыл	-694
еуметтік	-695
▁Э	-696
тып	-697
тері	-698
▁З	-699
амыз	-700
ад	-701
айтын	-702
▁техн	-703
▁барлық	-704
▁әді	-705
▁Осы	-706
▁ұсын	-707
▁айнал	-708
алған	-709
▁кон	-710
▁өткіз	-711
сен	-712
ылды	-713
айы	-714
кел	-715
▁еді	-716
▁Қар	-717
▁әде	-718
in	-719
▁сая	-720
▁жоғары	-721
▁келген	-722
алары	-723
▁ауыл	-724
▁алм	-725
орм	-726
ив	-727
▁І	-728
▁бү	-729
од	-730
лім	-731
▁болм	-732
▁бағдарлам	-733
ран	-734
іт	-735
▁Кө	-736
▁тір	-737
▁мат	-738
▁ак	-739
дықтан	-740
▁сен	-741
ун	-742
▁болса	-743
▁зерт	-744
▁Алматы	-745
алды	-746
ері	-747
▁асыр	-748
рт	-749
азар	-750
▁бағы	-751
▁ерек	-752
▁өзгер	-753
▁жин	-754
▁жатқан	-755
ент	-756
талған	-757
ушылар	-758
лері	-759
▁кәсіп	-760
▁Л	-761
кіл	-762
иден	-763
ова	-764
▁балалар	-765
гей	-766
се	-767
▁ақпарат	-768
▁дәр	-769
асындағы	-770
іледі	-771
▁оны	-772
кес	-773
лары	-774
▁мектеп	-775
тү	-776
лардың	-777
▁от	-778
▁мың	-779
дени	-780
▁жауап	-781
шысы	-782
імі	-783
▁No	-784
▁кір	-785
дарды	-786
аралық	-787
▁жос	-788
▁дай	-789
ган	-790
алау	-791
лас	-792
қық	-793
▁алып	-794
▁жай	-795
ид	-796
▁мінде	-797
езиден	-798
▁жақсы	-799
▁тас	-800
▁эконом	-801
▁болатын	-802
сі	-803
▁ретінде	-804
иғ	-805
уа	-806
тел	-807
▁тапсыр	-808
ологиялық	-809
▁ден	-810
▁әлеуметтік	-811
сыл	-812
ықты	-813
дем	-814
▁маңыз	-815
▁жі	-816
▁ішінде	-817
▁ав	-818
▁жел	-819
пер	-820
▁Ай	-821
шілер	-822
▁Бас	-823
▁жасау	-824
қын	-825
▁құрыл	-826
▁олардың	-827
▁күні	-828
▁көш	-829
kz	-830
ут	-831
▁жи	-832
▁орн	-833
▁бей	-834
▁ап	-835
▁азам	-836
асына	-837
▁негізгі	-838
тиж	-839
жан	-840
▁сау	-841
іргі	-842
▁кезең	-843
▁әлем	-844
стік	-845
▁бет	-846
an	-847
).	-848
мыз	-849
ңгей	-850
ыст	-851
әтиж	-852
▁тау	-853
▁жең	-854
▁жеке	-855
сының	-856
астыр	-857
тағы	-858
▁арн	-859
▁Ел	-860
▁ұст	-861
▁деңгей	-862
▁орта	-863
▁Біз	-864
er	-865
▁кезінде	-866
ама	-867
ылм	-868
тіп	-869
▁алған	-870
ара	-871
тті	-872
▁У	-873
атып	-874
▁/	-875
ән	-876
лығы	-877
▁алд	-878
▁сәй	-879
▁еңбек	-880
ағын	-881
▁бағыт	-882
инг	-883
▁арт	-884
діру	-885
тем	-886
тардың	-887
▁үлкен	-888
сті	-889
▁маман	-890
▁тұрғын	-891
анк	-892
▁ұйымдас	-893
▁қалыптас	-894
иция	-895
▁төмен	-896
иб	-897
аг	-898
▁өң	-899
үл	-900
ғыз	-901
▁күш	-902
▁кеш	-903
▁алады	-904
▁Мен	-905
ост	-906
▁сап	-907
▁даму	-908
▁мәлім	-909
▁болуы	-910
ериал	-911
порт	-912
▁жеткіз	-913
▁дер	-914
▁бұрын	-915
сан	-916
сау	-917
нен	-918
ғыл	-919
ка	-920
қты	-921
▁өткен	-922
),	-923
▁ойын	-924
өй	-925
▁отырып	-926
лектр	-927
▁бақ	-928
▁әсер	-929
еда	-930
ғау	-931
▁төл	-932
▁қу	-933
елері	-934
ри	-935
▁дү	-936
▁дамыту	-937
▁ауру	-938
▁жалпы	-939
ағат	-940
▁себ	-941
▁жылдың	-942
▁қатысты	-943
▁қандай	-944
иль	-945
▁келеді	-946
дарын	-947
▁пайда	-948
ларды	-949
▁Ар	-950
▁мек	-951
▁жатыр	-952
▁нәтиж	-953
дарының	-954
▁құқық	-955
▁бірі	-956
▁көмек	-957
▁бастап	-958
▁қалай	-959
▁күр	-960
иясы	-961
ырт	-962
ығын	-963
▁жоб	-964
ату	-965
аль	-966
гінің	-967
▁тәрби	-968
ғыс	-969
ина	-970
▁я	-971
ие	-972
▁тақыр	-973
▁қас	-974
▁алды	-975
▁әс	-976
изм	-977
▁әй	-978
▁қара	-979
керлер	-980
▁жылғы	-981
▁A	-982
▁табылады	-983
ерс	-984
▁сәйкес	-985
тады	-986
▁орнал	-987
▁орган	-988
▁жоспар	-989
▁теңге	-990
▁S	-991
дарға	-992
▁көтер	-993
▁хабарл	-994
▁түрлі	-995
ңг	-996
тердің	-997
▁шаруа	-998
айда	-999
нер	-1000
▁енгіз	-1001
▁министр	-1002
▁Ер	-1003
▁толық	-1004
▁кі	-1005
▁ҚР	-1006
▁өнер	-1007
тамасыз	-1008
тарды	-1009
аларды	-1010
▁қарж	-1011
раф	-1012
▁Нұр	-1013
▁тұл	-1014
▁қарсы	-1015
ейтін	-1016
▁тағ	-1017
▁жүзеге	-1018
▁мер	-1019
ткен	-1020
▁қамтамасыз	-1021
ыстық	-1022
▁оң	-1023
ілікті	-1024
▁сы	-1025
on	-1026
▁еш	-1027
▁Ор	-1028
ушы	-1029
▁өндір	-1030
▁талап	-1031
етті	-1032
теген	-1033
▁Бал	-1034
атынас	-1035
терді	-1036
▁мақсат	-1037
▁қауіп	-1038
еф	-1039
на	-1040
▁мүмкіндік	-1041
▁Өз	-1042
▁жұмыстар	-1043
▁орында	-1044
▁ету	-1045
шісі	-1046
істер	-1047
си	-1048
дігі	-1049
▁|	-1050
▁зерттеу	-1051
▁сия	-1052
▁Мемлекет	-1053
▁материал	-1054
▁ұз	-1055
▁мәдени	-1056
▁береді	-1057
▁АҚ	-1058
алардың	-1059
▁ұр	-1060
ыстыр	-1061
▁көрін	-1062
рам	-1063
бі	-1064
ысқа	-1065
ель	-1066
▁мұн	-1067
▁құрам	-1068
ікір	-1069
ектор	-1070
en	-1071
ылып	-1072
▁мл	-1073
ені	-1074
есей	-1075
▁Оның	-1076
▁сақтау	-1077
▁түрде	-1078
▁пар	-1079
▁бөлім	-1080
▁құрал	-1081
▁сияқты	-1082
▁алғаш	-1083
▁Сол	-1084
▁атқар	-1085
саты	-1086
Қазақ	-1087
▁ұлттық	-1088
▁Оқ	-1089
ымды	-1090
▁маңызды	-1091
▁із	-1092
лігі	-1093
екті	-1094
st	-1095
ыб	-1096
▁“	-1097
ылау	-1098
егі	-1099
неше	-1100
есінің	-1101
▁жаб	-1102
▁I	-1103
▁бірақ	-1104
ысында	-1105
▁өтті	-1106
▁Жаң	-1107
ғай	-1108
сіздік	-1109
▁проц	-1110
ar	-1111
етінің	-1112
алады	-1113
▁Бү	-1114
▁қайта	-1115
▁қи	-1116
▁белгілі	-1117
▁тоқ	-1118
▁Республикасының	-1119
▁сүй	-1120
дап	-1121
▁қыр	-1122
уел	-1123
▁там	-1124
шылығы	-1125
су	-1126
▁Бірақ	-1127
▁сер	-1128
▁бірге	-1129
▁қорғау	-1130
ро	-1131
▁C	-1132
ум	-1133
ұрыс	-1134
лен	-1135
терін	-1136
▁орналас	-1137
сін	-1138
сақ	-1139
▁хал	-1140
at	-1141
есінде	-1142
▁ме	-1143
▁дүни	-1144
уды	-1145
▁деді	-1146
▁Егер	-1147
▁басты	-1148
▁оқыту	-1149
түстік	-1150
уз	-1151
тарын	-1152
▁көлем	-1153
▁сондай	-1154
▁ұш	-1155
or	-1156
стер	-1157
дердің	-1158
пания	-1159
▁сип	-1160
ли	-1161
▁газ	-1162
ғым	-1163
▁әдеби	-1164
▁келіс	-1165
ект	-1166
істі	-1167
▁,	-1168
етр	-1169
▁T	-1170
ылатын	-1171
уына	-1172
▁об	-1173
▁мед	-1174
жір	-1175
ұлы	-1176
▁сур	-1177
▁ғылыми	-1178
▁қарай	-1179
▁әрі	-1180
▁сөй	-1181
уын	-1182
ілігі	-1183
▁оқушылар	-1184
▁өр	-1185
▁бірнеше	-1186
▁пол	-1187
▁аяқ	-1188
▁дейді	-1189
ала	-1190
алығ	-1191
▁Сонымен	-1192
қау	-1193
АР	-1194
▁әрек	-1195
ус	-1196
▁бек	-1197
▁қоз	-1198
ұс	-1199
▁бұз	-1200
▁айту	-1201
есс	-1202
▁Ин	-1203
▁құж	-1204
▁Ау	-1205
▁Ұл	-1206
▁арасында	-1207
▁.	-1208
лай	-1209
верс	-1210
▁рес	-1211
ілетін	-1212
тив	-1213
▁кітап	-1214
▁сынып	-1215
▁жария	-1216
АН	-1217
асыр	-1218
сп	-1219
▁сар	-1220
▁бірінші	-1221
▁біздің	-1222
мын	-1223
ниверс	-1224
уір	-1225
▁ескер	-1226
▁нау	-1227
▁мән	-1228
▁ки	-1229
жіриб	-1230
дерін	-1231
▁аудар	-1232
енің	-1233
нет	-1234
▁жүргізу	-1235
▁Ғ	-1236
ылық	-1237
істік	-1238
▁әйел	-1239
▁шын	-1240
▁жібер	-1241
▁электр	-1242
▁өзінің	-1243
▁сот	-1244
▁тел	-1245
▁ір	-1246
▁Аз	-1247
▁шық	-1248
▁жағдайда	-1249
ғни	-1250
▁екенін	-1251
шық	-1252
иг	-1253
▁Президен	-1254
уль	-1255
стана	-1256
удың	-1257
▁е	-1258
▁Қо	-1259
▁дайын	-1260
гог	-1261
ниверсит	-1262
▁ән	-1263
▁Қыз	-1264
▁Сіз	-1265
▁Со	-1266
▁көрсету	-1267
▁Құр	-1268
▁тем	-1269
▁дұрыс	-1270
▁по	-1271
сих	-1272
талды	-1273
кіш	-1274
▁күй	-1275
▁кем	-1276
туден	-1277
▁авт	-1278
▁ерекш	-1279
▁бәр	-1280
ларын	-1281
едагог	-1282
ұқ	-1283
▁сатып	-1284
▁Ресей	-1285
▁мерз	-1286
үрлі	-1287
▁шақыр	-1288
иту	-1289
al	-1290
аларын	-1291
▁облысы	-1292
▁төр	-1293
ақы	-1294
▁сез	-1295
▁банк	-1296
ікті	-1297
гіне	-1298
▁қон	-1299
▁келтір	-1300
▁пікір	-1301
ла	-1302
иф	-1303
алықтар	-1304
рат	-1305
уда	-1306
был	-1307
басы	-1308
өр	-1309
▁дәл	-1310
▁сабақ	-1311
▁арнайы	-1312
тегі	-1313
▁іске	-1314
аттық	-1315
▁саны	-1316
мұ	-1317
▁сый	-1318
▁үст	-1319
бе	-1320
ілім	-1321
дерді	-1322
▁бөлін	-1323
еміз	-1324
▁отырған	-1325
▁ие	-1326
амен	-1327
▁нар	-1328
ынған	-1329
атыл	-1330
▁P	-1331
іпті	-1332
▁табиғ	-1333
▁Олар	-1334
▁тиіс	-1335
іру	-1336
ститу	-1337
есіне	-1338
урс	-1339
▁халықаралық	-1340
зір	-1341
▁қалған	-1342
тты	-1343
▁үйр	-1344
дігін	-1345
▁өзін	-1346
▁өзі	-1347
иев	-1348
мағ	-1349
▁бақылау	-1350
▁ата	-1351
қор	-1352
▁Түр	-1353
▁білдір	-1354
дығы	-1355
▁тіз	-1356
▁етеді	-1357
тандыру	-1358
▁B	-1359
▁ауыр	-1360
▁тағы	-1361
▁ч	-1362
ұлтан	-1363
ограф	-1364
▁хабарлайды	-1365
▁Құ	-1366
▁тиімді	-1367
▁Сондықтан	-1368
▁мөл	-1369
________	-1370
елен	-1371
▁нақты	-1372
оф	-1373
атор	-1374
▁жөніндегі	-1375
▁бала	-1376
ауы	-1377
▁Республикасы	-1378
▁бүгін	-1379
▁тексер	-1380
▁бөлі	-1381
▁ру	-1382
сым	-1383
▁заман	-1384
▁айтқан	-1385
▁пән	-1386
▁көптеген	-1387
▁қаси	-1388
ияның	-1389
▁спорт	-1390
▁сипат	-1391
▁дем	-1392
▁мүш	-1393
▁тәжіриб	-1394
▁шет	-1395
▁атты	-1396
ектер	-1397
▁көң	-1398
леу	-1399
▁қағ	-1400
таған	-1401
▁атындағы	-1402
▁Мә	-1403
гінде	-1404
пақ	-1405
күй	-1406
ілде	-1407
▁жүрген	-1408
▁ғасыр	-1409
▁технология	-1410
▁фак	-1411
▁қоғамдық	-1412
ымша	-1413
▁басшысы	-1414
уш	-1415
▁Жал	-1416
▁өкіл	-1417
▁»	-1418
▁әскер	-1419
тарға	-1420
▁барысында	-1421
▁адамдар	-1422
оль	-1423
▁құл	-1424
▁алғашқы	-1425
іліп	-1426
ми	-1427
▁белсен	-1428
ткені	-1429
дерінің	-1430
алығы	-1431
▁экономикалық	-1432
анды	-1433
арлық	-1434
▁компания	-1435
стр	-1436
▁ерекше	-1437
▁екінші	-1438
іміздің	-1439
атур	-1440
▁үз	-1441
імдік	-1442
▁Қазақстанның	-1443
нді	-1444
▁құн	-1445
гілікті	-1446
▁M	-1447
....	-1448
рыз	-1449
▁сағат	-1450
▁көк	-1451
йткені	-1452
дек	-1453
алым	-1454
le	-1455
ытынды	-1456
▁[	-1457
кция	-1458
орын	-1459
▁медиц	-1460
Ақ	-1461
енттер	-1462
▁қарап	-1463
▁ма	-1464
▁айыр	-1465
▁мұғал	-1466
▁Бүгін	-1467
▁оған	-1468
▁Мұн	-1469
тылған	-1470
▁тұрған	-1471
▁жем	-1472
жай	-1473
▁мөлш	-1474
▁жүк	-1475
ысалы	-1476
▁университ	-1477
пай	-1478
▁шек	-1479
бат	-1480
▁кл	-1481
▁кор	-1482
ич	-1483
.,	-1484
▁студен	-1485
▁дін	-1486
▁ди	-1487
ме	-1488
пас	-1489
ігер	-1490
сындай	-1491
▁мар	-1492
аусым	-1493
▁қазіргі	-1494
▁саб	-1495
АЛ	-1496
но	-1497
▁ц	-1498
жыр	-1499
▁Халық	-1500
▁кер	-1501
▁комп	-1502
юд	-1503
тес	-1504
▁өңір	-1505
Ал	-1506
▁онда	-1507
▁Ком	-1508
ымал	-1509
▁көб	-1510
▁себеп	-1511
пе	-1512
▁Ан	-1513
ысын	-1514
ғыш	-1515
▁адамның	-1516
бет	-1517
▁басқару	-1518
▁сырт	-1519
▁өнім	-1520
ланған	-1521
циялық	-1522
▁атап	-1523
▁ық	-1524
үн	-1525
Қазақстан	-1526
▁нәр	-1527
▁ұйымдастыру	-1528
ди	-1529
▁қыс	-1530
▁Сабақ	-1531
▁берді	-1532
▁мұр	-1533
айым	-1534
талады	-1535
▁ест	-1536
цион	-1537
тілік	-1538
қыз	-1539
шар	-1540
▁Жұм	-1541
▁оларды	-1542
▁ашыл	-1543
▁Тә	-1544
▁мақсаты	-1545
▁қатынас	-1546
▁уақытта	-1547
▁мәселелер	-1548
кеу	-1549
▁Ес	-1550
мин	-1551
▁пайыз	-1552
май	-1553
▁сайын	-1554
лес	-1555
вест	-1556
▁қиын	-1557
бол	-1558
ебі	-1559
▁Әр	-1560
▁Ұлттық	-1561
▁шыққан	-1562
▁бос	-1563
нем	-1564
лап	-1565
уб	-1566
▁жалғ	-1567
ью	-1568
▁Мемлекеттік	-1569
▁қала	-1570
▁денсау	-1571
▁облыстық	-1572
▁сүр	-1573
▁белсенді	-1574
▁жерде	-1575
▁Бұ	-1576
аса	-1577
елеу	-1578
тат	-1579
әсі	-1580
▁Ең	-1581
▁қылм	-1582
фер	-1583
шылары	-1584
исс	-1585
азарбаев	-1586
▁•	-1587
ытай	-1588
▁тұрақты	-1589
▁құрылым	-1590
аян	-1591
аев	-1592
илл	-1593
▁республ	-1594
▁айтып	-1595
▁инф	-1596
▁келе	-1597
▁белгіл	-1598
▁шығарма	-1599
кем	-1600
▁заттар	-1601
▁тілі	-1602
▁Сондай	-1603
▁арасындағы	-1604
ант	-1605
ңгім	-1606
▁қолдау	-1607
▁соңғы	-1608
▁келіп	-1609
▁мекем	-1610
иру	-1611
▁маз	-1612
▁Кон	-1613
▁азаматтар	-1614
▁на	-1615
▁қаласы	-1616
коном	-1617
▁жу	-1618
▁шам	-1619
▁одан	-1620
шан	-1621
▁Бай	-1622
стандық	-1623
▁ақын	-1624
▁псих	-1625
▁тұлғ	-1626
▁кес	-1627
др	-1628
▁анықтау	-1629
аттың	-1630
▁қабіл	-1631
▁тік	-1632
▁қозғал	-1633
юджет	-1634
урнал	-1635
▁Жаңа	-1636
▁кеткен	-1637
▁нұс	-1638
▁тақырыб	-1639
▁стан	-1640
мер	-1641
▁астам	-1642
▁ныс	-1643
».	-1644
орда	-1645
даған	-1646
▁көлік	-1647
нам	-1648
▁өлең	-1649
тайды	-1650
иналық	-1651
▁бойы	-1652
▁болу	-1653
▁пайдалану	-1654
тоқ	-1655
▁көңіл	-1656
▁берген	-1657
▁E	-1658
амыр	-1659
ци	-1660
қас	-1661
▁Жар	-1662
▁туған	-1663
▁арал	-1664
▁ішкі	-1665
мейді	-1666
▁байланыс	-1667
▁ко	-1668
it	-1669
иректор	-1670
▁Қор	-1671
АҚ	-1672
ғыр	-1673
▁яғни	-1674
керлік	-1675
емен	-1676
▁жылдан	-1677
▁айтты	-1678
▁орналасқан	-1679
бен	-1680
▁сек	-1681
ларға	-1682
▁тапсырм	-1683
▁ұйымдастыр	-1684
▁Әл	-1685
▁қызметі	-1686
▁педагог	-1687
ауға	-1688
нерг	-1689
кімет	-1690
▁түрі	-1691
▁қорытынды	-1692
▁АҚШ	-1693
▁млн	-1694
тө	-1695
атив	-1696
▁шешім	-1697
▁қажетті	-1698
аларға	-1699
тоқсан	-1700
ағанда	-1701
дылық	-1702
▁алуға	-1703
▁ын	-1704
▁маусым	-1705
делі	-1706
быр	-1707
▁бағалау	-1708
▁Астана	-1709
▁халқ	-1710
▁алаң	-1711
аф	-1712
қат	-1713
ындай	-1714
es	-1715
ашақ	-1716
айын	-1717
ттар	-1718
▁жергілікті	-1719
▁қарастыр	-1720
ЕР	-1721
ағым	-1722
шын	-1723
акт	-1724
ысының	-1725
▁таз	-1726
▁тоб	-1727
▁дейінгі	-1728
▁ашық	-1729
▁шы	-1730
жым	-1731
▁алдын	-1732
үз	-1733
▁сіл	-1734
▁кейбір	-1735
кір	-1736
елей	-1737
▁ереж	-1738
▁басқарм	-1739
▁кездес	-1740
▁тың	-1741
▁им	-1742
егіз	-1743
▁саяси	-1744
лердің	-1745
▁форм	-1746
алдық	-1747
▁жасалған	-1748
қыр	-1749
ілу	-1750
▁Қазіргі	-1751
▁жап	-1752
ырақ	-1753
▁тауар	-1754
ғар	-1755
лерін	-1756
сар	-1757
▁келді	-1758
▁қызметкер	-1759
атег	-1760
▁тұрады	-1761
▁қаң	-1762
▁тақырып	-1763
ейт	-1764
ыстары	-1765
▁дау	-1766
дерге	-1767
",	-1768
▁Абай	-1769
тыс	-1770
▁сонымен	-1771
▁Қай	-1772
▁Би	-1773
▁жасап	-1774
ян	-1775
ств	-1776
▁D	-1777
деп	-1778
▁парт	-1779
▁әзір	-1780
кент	-1781
пи	-1782
▁орталық	-1783
едж	-1784
▁әкел	-1785
▁опер	-1786
▁етіп	-1787
▁Еур	-1788
▁Жалпы	-1789
▁Кей	-1790
▁бюджет	-1791
▁ауданы	-1792
▁Жан	-1793
▁ке	-1794
СТ	-1795
▁әскери	-1796
едел	-1797
дарына	-1798
▁әңгім	-1799
әл	-1800
▁Жо	-1801
▁мерек	-1802
▁май	-1803
▁Мақ	-1804
▁сурет	-1805
қыш	-1806
▁тәуел	-1807
om	-1808
▁бола	-1809
▁мына	-1810
сек	-1811
▁назар	-1812
ығына	-1813
терге	-1814
▁жүйесі	-1815
▁аясында	-1816
▁мақсатында	-1817
▁Тар	-1818
ЫН	-1819
▁мал	-1820
▁F	-1821
▁Президент	-1822
уар	-1823
▁өзге	-1824
▁саясат	-1825
▁қарым	-1826
▁Я	-1827
ісін	-1828
▁түз	-1829
▁Адам	-1830
▁орынбас	-1831
▁фил	-1832
▁K	-1833
алып	-1834
▁хат	-1835
▁қабылдау	-1836
еңгер	-1837
иясының	-1838
▁тәс	-1839
▁инвест	-1840
▁ала	-1841
▁пат	-1842
хани	-1843
ic	-1844
▁құжаттар	-1845
нес	-1846
▁берілген	-1847
ло	-1848
▁Ас	-1849
▁мекен	-1850
▁жылға	-1851
▁бес	-1852
▁биз	-1853
қай	-1854
▁директор	-1855
▁түй	-1856
▁қолдану	-1857
▁алатын	-1858
пор	-1859
емін	-1860
▁кәсіпорын	-1861
естер	-1862
▁таңда	-1863
імнің	-1864
тану	-1865
мін	-1866
▁ам	-1867
▁қосымша	-1868
▁келесі	-1869
▁мазмұ	-1870
▁өтін	-1871
мей	-1872
▁Қазақстанда	-1873
▁енді	-1874
ык	-1875
итор	-1876
еуі	-1877
▁шетел	-1878
▁беретін	-1879
анда	-1880
▁мін	-1881
ur	-1882
амын	-1883
▁интер	-1884
▁Сә	-1885
▁сауда	-1886
▁артық	-1887
ылар	-1888
▁төрағ	-1889
▁ғалым	-1890
атика	-1891
▁таныс	-1892
am	-1893
▁Жер	-1894
тең	-1895
тарлық	-1896
▁муз	-1897
▁дәрігер	-1898
il	-1899
▁W	-1900
▁осындай	-1901
ғанда	-1902
▁ғой	-1903
▁Назарбаев	-1904
мо	-1905
▁әдіст	-1906
▁кар	-1907
лікті	-1908
аларының	-1909
▁дәст	-1910
▁ақша	-1911
▁хан	-1912
▁нес	-1913
тама	-1914
пасөз	-1915
атр	-1916
теп	-1917
▁президен	-1918
▁әлі	-1919
▁дайында	-1920
▁тарихы	-1921
▁облысының	-1922
уді	-1923
▁түсір	-1924
мун	-1925
▁Ав	-1926
ност	-1927
▁талдау	-1928
иде	-1929
▁мөлшер	-1930
▁мет	-1931
▁аң	-1932
▁меңгер	-1933
▁Алайда	-1934
▁кол	-1935
ылуы	-1936
▁аб	-1937
тығ	-1938
ларының	-1939
▁негізінде	-1940
▁қаржы	-1941
▁өсімдік	-1942
сылай	-1943
▁Жас	-1944
▁зор	-1945
▁шығы	-1946
түрлі	-1947
ого	-1948
лігін	-1949
▁зия	-1950
▁нысан	-1951
▁мол	-1952
ілері	-1953
▁Он	-1954
▁дағ	-1955
лығын	-1956
▁Қызыл	-1957
▁тарихи	-1958
қым	-1959
▁мо	-1960
as	-1961
▁сұрақтар	-1962
▁арттыру	-1963
▁G	-1964
әм	-1965
дығ	-1966
▁қаласында	-1967
дақ	-1968
келген	-1969
▁қазір	-1970
▁әу	-1971
▁өнімдер	-1972
▁медициналық	-1973
▁ге	-1974
маған	-1975
▁жылдары	-1976
ауыр	-1977
ирус	-1978
▁келісім	-1979
екел	-1980
▁салық	-1981
▁Оқушылар	-1982
▁Жыл	-1983
▁қалды	-1984
ский	-1985
овтың	-1986
▁бо	-1987
▁тарап	-1988
▁оқи	-1989
az	-1990
▁асыру	-1991
▁институ	-1992
▁пер	-1993
▁істер	-1994
пал	-1995
▁ұзақ	-1996
▁қатты	-1997
▁жарық	-1998
шік	-1999
▁әрбір	-2000
ed	-2001
▁шаруашылығы	-2002
▁Ч	-2003
▁өзара	-2004
ыстың	-2005
▁түсті	-2006
▁бейн	-2007
▁орынбасары	-2008
▁қазақстандық	-2009
▁мақал	-2010
▁әкімі	-2011
▁тын	-2012
▁Әб	-2013
▁міндетті	-2014
▁Қытай	-2015
ұрт	-2016
▁белгі	-2017
▁жоғар	-2018
▁энерг	-2019
▁ірі	-2020
▁жыр	-2021
▁Сер	-2022
▁иде	-2023
иллион	-2024
▁ететін	-2025
▁аса	-2026
▁Мар	-2027
▁түскен	-2028
▁стр	-2029
▁өндіру	-2030
▁Отан	-2031
▁көрсеткіш	-2032
▁қалыптастыру	-2033
▁жағдайлар	-2034
▁терең	-2035
азах	-2036
▁мон	-2037
дықтар	-2038
▁фун	-2039
▁кеңес	-2040
▁бастады	-2041
▁t	-2042
▁өлш	-2043
ля	-2044
▁кр	-2045
▁менің	-2046
▁сү	-2047
тырау	-2048
▁Шығ	-2049
▁алмай	-2050
▁жиын	-2051
.)	-2052
циясы	-2053
▁әрекет	-2054
▁журнал	-2055
▁:	-2056
▁жұ	-2057
▁қызметкерлер	-2058
▁бері	-2059
қорлық	-2060
▁ұқ	-2061
▁Орт	-2062
ушылық	-2063
▁Сабақтың	-2064
▁батыр	-2065
▁дол	-2066
▁ерекшелік	-2067
ду	-2068
▁алдында	-2069
▁жатады	-2070
▁теор	-2071
ету	-2072
▁жайлы	-2073
▁жетек	-2074
▁Қал	-2075
бар	-2076
▁ресми	-2077
▁студенттер	-2078
▁төлем	-2079
▁V	-2080
▁шығын	-2081
нов	-2082
▁аймақ	-2083
▁тыр	-2084
▁тез	-2085
▁өзгерістер	-2086
▁жылдар	-2087
▁мәдениет	-2088
▁ІІ	-2089
емп	-2090
▁Жол	-2091
ЫҚ	-2092
▁объ	-2093
▁Біздің	-2094
теме	-2095
▁орталығы	-2096
▁орай	-2097
et	-2098
▁міндеттер	-2099
▁әртүрлі	-2100
кт	-2101
▁ұм	-2102
▁Мысалы	-2103
▁Кең	-2104
▁желтоқсан	-2105
▁мәліметтер	-2106
абы	-2107
▁Олардың	-2108
ымкент	-2109
▁сыр	-2110
тте	-2111
▁мас	-2112
▁қаңтар	-2113
▁был	-2114
▁қабылдан	-2115
▁жолы	-2116
▁орындал	-2117
ль	-2118
алатын	-2119
▁+	-2120
ac	-2121
▁істеу	-2122
▁жағынан	-2123
▁кеп	-2124
▁наурыз	-2125
▁бәрі	-2126
алығында	-2127
▁сайт	-2128
истік	-2129
ғады	-2130
▁қаласының	-2131
▁уч	-2132
▁ре	-2133
елерін	-2134
ациялық	-2135
▁электрон	-2136
▁тр	-2137
▁орыс	-2138
шек	-2139
төбе	-2140
айық	-2141
мат	-2142
ектеп	-2143
▁жастар	-2144
▁отбас	-2145
▁аласыз	-2146
іресе	-2147
хана	-2148
▁айтуынша	-2149
▁дәреж	-2150
▁Білім	-2151
▁жасаған	-2152
▁баспасөз	-2153
▁құрмет	-2154
▁миллион	-2155
▁Заң	-2156
▁жақын	-2157
▁құру	-2158
is	-2159
ылу	-2160
▁бастау	-2161
▁мамыр	-2162
▁ба	-2163
ws	-2164
тация	-2165
▁асп	-2166
▁кім	-2167
▁реф	-2168
шілігі	-2169
ro	-2170
el	-2171
▁елдің	-2172
▁бүкіл	-2173
ілігін	-2174
делген	-2175
ЕН	-2176
▁Оң	-2177
▁сұ	-2178
сына	-2179
%-	-2180
йр	-2181
▁аудандық	-2182
айт	-2183
ея	-2184
еңіз	-2185
▁карт	-2186
▁жиі	-2187
▁алынған	-2188
▁клас	-2189
▁көмектес	-2190
▁?	-2191
▁төрт	-2192
гр	-2193
▁байқ	-2194
▁түрлері	-2195
терінің	-2196
▁келетін	-2197
▁бүгінгі	-2198
ығының	-2199
кет	-2200
▁болмайды	-2201
емпион	-2202
▁эт	-2203
асынан	-2204
па	-2205
▁автор	-2206
▁то	-2207
құл	-2208
▁R	-2209
лерді	-2210
▁ст	-2211
▁шағын	-2212
лет	-2213
▁ұлт	-2214
▁тікелей	-2215
яр	-2216
▁ақпараттық	-2217
▁сайлау	-2218
▁кетті	-2219
▁үздік	-2220
меген	-2221
▁қағаз	-2222
әсіби	-2223
▁Көп	-2224
кістан	-2225
кәсіп	-2226
▁білу	-2227
▁H	-2228
▁комисс	-2229
▁егер	-2230
ымыздың	-2231
▁ок	-2232
▁L	-2233
▁ұн	-2234
▁болсын	-2235
▁суб	-2236
ильм	-2237
▁үйрен	-2238
▁сыртқы	-2239
▁комит	-2240
ысына	-2241
АТ	-2242
▁жеңіл	-2243
астан	-2244
▁салыстыр	-2245
▁тұратын	-2246
▁табиғи	-2247
лом	-2248
▁шеб	-2249
▁шықты	-2250
тығы	-2251
ардың	-2252
блем	-2253
▁көм	-2254
▁денсаулық	-2255
▁инвестиция	-2256
нек	-2257
▁талқыл	-2258
▁елдер	-2259
▁қараж	-2260
ож	-2261
▁мұндай	-2262
▁тыс	-2263
Ақпарат	-2264
истер	-2265
▁тәсіл	-2266
▁өту	-2267
▁тіпті	-2268
ерлік	-2269
қатынас	-2270
▁гүл	-2271
▁до	-2272
туға	-2273
▁жылдам	-2274
лест	-2275
ағанды	-2276
▁дәлел	-2277
ать	-2278
мақтар	-2279
рд	-2280
▁күрес	-2281
еде	-2282
тарының	-2283
▁соз	-2284
▁норм	-2285
▁жігі	-2286
▁халықтың	-2287
ография	-2288
▁байқау	-2289
▁Тұр	-2290
▁үнем	-2291
еттері	-2292
▁өткізу	-2293
ефон	-2294
▁ағ	-2295
енті	-2296
▁жазу	-2297
паз	-2298
▁тамақ	-2299
▁ұстаз	-2300
▁ку	-2301
▁та	-2302
▁мей	-2303
▁сарап	-2304
ol	-2305
▁бағдарламасы	-2306
▁рас	-2307
▁шарт	-2308
▁сәуір	-2309
сам	-2310
▁еліміз	-2311
▁Көр	-2312
▁Кел	-2313
▁басым	-2314
імін	-2315
астыру	-2316
▁бекіт	-2317
▁реж	-2318
ыңғай	-2319
▁Қан	-2320
▁техникалық	-2321
▁қыркүй	-2322
шаған	-2323
еск	-2324
анд	-2325
дыз	-2326
▁Шымкент	-2327
дығын	-2328
раз	-2329
▁үлгі	-2330
▁кешен	-2331
▁Пар	-2332
▁баян	-2333
▁енгізу	-2334
аңғы	-2335
урстар	-2336
ыста	-2337
▁тақ	-2338
▁тексеру	-2339
▁бөлігі	-2340
▁түсіндір	-2341
дім	-2342
▁Атырау	-2343
▁аты	-2344
▁Қыр	-2345
▁млрд	-2346
зия	-2347
▁Қазір	-2348
▁шығарм	-2349
икасы	-2350
▁бу	-2351
▁стандар	-2352
▁Дж	-2353
▁ойн	-2354
▁Қас	-2355
▁түсінік	-2356
рақ	-2357
▁шаб	-2358
кономикалық	-2359
шақ	-2360
ad	-2361
▁қарағанда	-2362
▁тон	-2363
▁қою	-2364
▁полиция	-2365
▁ісі	-2366
▁салу	-2367
▁той	-2368
әрек	-2369
▁айналыс	-2370
▁Ы	-2371
елерді	-2372
▁элем	-2373
уіне	-2374
▁заңды	-2375
▁қазан	-2376
▁ұғым	-2377
▁сіздің	-2378
▁зей	-2379
▁ауыз	-2380
ульт	-2381
шының	-2382
▁өңдеу	-2383
▁шығару	-2384
▁сом	-2385
▁облысында	-2386
▁Халықаралық	-2387
▁рухани	-2388
уші	-2389
жы	-2390
ник	-2391
▁автом	-2392
▁тәу	-2393
▁аген	-2394
ht	-2395
имар	-2396
▁атау	-2397
▁жұмыстары	-2398
▁көрсетеді	-2399
▁физ	-2400
▁билік	-2401
▁Ден	-2402
жыл	-2403
▁Негіз	-2404
▁барлығы	-2405
▁Үй	-2406
▁ды	-2407
дарында	-2408
gr	-2409
▁көлемі	-2410
▁баз	-2411
▁қалалық	-2412
▁көрсетілген	-2413
▁сондықтан	-2414
иплом	-2415
▁проблем	-2416
▁ақыл	-2417
▁Енді	-2418
▁етті	-2419
ихат	-2420
▁тиісті	-2421
▁чемпион	-2422
▁ұлы	-2423
▁республикалық	-2424
▁мой	-2425
ный	-2426
▁маш	-2427
артам	-2428
▁сөздер	-2429
▁айтады	-2430
ейту	-2431
▁өтеді	-2432
пр	-2433
жар	-2434
деген	-2435
▁белгілен	-2436
▁ұй	-2437
▁Ис	-2438
▁шаруашылық	-2439
▁үр	-2440
▁фактор	-2441
▁беріп	-2442
▁ағаш	-2443
▁күнде	-2444
▁O	-2445
▁қатысу	-2446
▁кест	-2447
ектеу	-2448
ұлдыз	-2449
▁шығып	-2450
мағы	-2451
▁Орталық	-2452
▁алын	-2453
▁нарық	-2454
▁шілде	-2455
тей	-2456
▁орны	-2457
▁департам	-2458
міз	-2459
▁айып	-2460
▁Ой	-2461
▁сыз	-2462
▁тұтын	-2463
);	-2464
▁соғыс	-2465
ферен	-2466
ош	-2467
ован	-2468
иканың	-2469
талып	-2470
▁өйткені	-2471
▁ықпал	-2472
ЕТ	-2473
▁көрген	-2474
ияда	-2475
▁кездесу	-2476
▁шығармашылық	-2477
▁әріп	-2478
АС	-2479
us	-2480
▁қауым	-2481
▁Ұлы	-2482
▁тәрті	-2483
▁кәсіби	-2484
▁қызметін	-2485
ғары	-2486
▁Еуроп	-2487
езен	-2488
ные	-2489
▁ақш	-2490
▁жуық	-2491
▁арқ	-2492
ыған	-2493
▁қарапайым	-2494
▁жоғал	-2495
II	-2496
▁Өйткені	-2497
ігі	-2498
▁Күн	-2499
майды	-2500
аттары	-2501
ыны	-2502
пары	-2503
дарда	-2504
▁қарам	-2505
▁жабдық	-2506
ьютер	-2507
▁алтын	-2508
ади	-2509
▁сұрақ	-2510
әй	-2511
▁мұнай	-2512
▁ҚазАқпарат	-2513
емет	-2514
тымақ	-2515
техн	-2516
▁Бар	-2517
ук	-2518
▁аталған	-2519
лігінің	-2520
▁ауыс	-2521
дармен	-2522
▁әдіс	-2523
▁қалдыр	-2524
егінде	-2525
▁құрылыс	-2526
алан	-2527
дарынан	-2528
шылардың	-2529
тілер	-2530
▁тамыз	-2531
▁көзқар	-2532
▁Жақ	-2533
oo	-2534
▁проф	-2535
▁Мұндай	-2536
ейік	-2537
▁дерек	-2538
▁жинақ	-2539
▁бәс	-2540
▁Ақтөбе	-2541
▁жөнінде	-2542
▁рөл	-2543
▁Сен	-2544
▁кен	-2545
умен	-2546
лаған	-2547
▁бе	-2548
▁беріледі	-2549
қашан	-2550
лайн	-2551
▁өк	-2552
ана	-2553
▁күрделі	-2554
ектілер	-2555
▁тест	-2556
▁еткен	-2557
▁адамдардың	-2558
▁бұрынғы	-2559
▁жауапкер	-2560
▁Барлық	-2561
▁қауіпсіз	-2562
ews	-2563
андық	-2564
ко	-2565
▁өзіне	-2566
далы	-2567
атқа	-2568
▁жаңалық	-2569
▁телефон	-2570
▁идея	-2571
▁жүрек	-2572
▁зар	-2573
▁есеб	-2574
▁бі	-2575
▁саласындағы	-2576
▁директоры	-2577
▁үм	-2578
ки	-2579
▁Қарағанды	-2580
уыл	-2581
▁рұқ	-2582
▁жазылған	-2583
▁себебі	-2584
инар	-2585
ion	-2586
▁жек	-2587
▁Бол	-2588
▁жануар	-2589
▁тегін	-2590
ияға	-2591
▁шаш	-2592
▁Түркістан	-2593
▁бастаған	-2594
гал	-2595
▁таңдау	-2596
хам	-2597
ыстан	-2598
өп	-2599
▁жоспары	-2600
▁міндет	-2601
▁қалп	-2602
▁оқиғ	-2603
тп	-2604
▁айында	-2605
ста	-2606
▁болашақ	-2607
▁*	-2608
еди	-2609
▁қысқа	-2610
▁орындау	-2611
▁қана	-2612
▁өндіріс	-2613
▁бизнес	-2614
▁нәтижесінде	-2615
▁ғимар	-2616
▁Нау	-2617
▁тәртіп	-2618
сұлтан	-2619
▁мінез	-2620
▁Жам	-2621
онав	-2622
ператур	-2623
▁қауіпсіздік	-2624
елерінің	-2625
▁тәрбиелеу	-2626
▁X	-2627
▁жастағы	-2628
ңыр	-2629
имыл	-2630
▁қолданылады	-2631
импи	-2632
▁ұқс	-2633
▁сала	-2634
▁құқықтық	-2635
▁айтыл	-2636
▁ұя	-2637
ww	-2638
іліс	-2639
ьер	-2640
окс	-2641
he	-2642
▁жылдық	-2643
▁мыс	-2644
▁салын	-2645
▁мәр	-2646
өзі	-2647
▁Тәуел	-2648
▁кап	-2649
▁бағытталған	-2650
▁Мат	-2651
▁өтініш	-2652
лерге	-2653
▁Бер	-2654
▁алдымен	-2655
ДЫ	-2656
дады	-2657
еттерін	-2658
Қаз	-2659
▁сің	-2660
▁тілінде	-2661
дайды	-2662
▁шектеу	-2663
▁минут	-2664
гілі	-2665
▁тарту	-2666
авло	-2667
▁Қол	-2668
▁метр	-2669
▁хим	-2670
▁лау	-2671
▁Оңтүстік	-2672
▁ақпан	-2673
▁Тө	-2674
▁шыр	-2675
аж	-2676
▁мазмұн	-2677
ңыз	-2678
деді	-2679
теді	-2680
▁қоса	-2681
орма	-2682
▁тәрбие	-2683
▁дағды	-2684
ург	-2685
ДА	-2686
далған	-2687
ңғы	-2688
▁құрайды	-2689
▁оңай	-2690
▁кан	-2691
▁шай	-2692
▁қайтар	-2693
▁--	-2694
▁Себ	-2695
▁дыб	-2696
▁зейнет	-2697
//	-2698
▁барып	-2699
▁оқып	-2700
ШС	-2701
▁жедел	-2702
▁жетк	-2703
құ	-2704
аныш	-2705
▁Ах	-2706
▁өтіп	-2707
▁өкілдері	-2708
еңбер	-2709
ата	-2710
▁салып	-2711
▁Азия	-2712
▁То	-2713
асты	-2714
ауыт	-2715
іктір	-2716
▁Те	-2717
▁аумағ	-2718
әрби	-2719
▁жүріп	-2720
▁Бағ	-2721
еден	-2722
▁кейінгі	-2723
▁Қоғам	-2724
▁отбасы	-2725
▁жеткізу	-2726
▁Бей	-2727
▁операция	-2728
ақыты	-2729
▁Әй	-2730
▁емдеу	-2731
▁Бел	-2732
гіш	-2733
▁тән	-2734
▁функция	-2735
▁ынтымақ	-2736
екция	-2737
▁ег	-2738
▁баға	-2739
▁төрағасы	-2740
▁#	-2741
▁мәселелері	-2742
▁орталығ	-2743
истика	-2744
асымен	-2745
▁жемқорлық	-2746
▁маңызы	-2747
▁адамға	-2748
▁арттыр	-2749
алай	-2750
▁ЖШС	-2751
ард	-2752
▁кіш	-2753
ғаны	-2754
імізді	-2755
алл	-2756
▁мәселе	-2757
айлы	-2758
тивті	-2759
▁еліміздің	-2760
▁темір	-2761
▁біреу	-2762
▁Кез	-2763
▁Кор	-2764
адем	-2765
бақ	-2766
АЗ	-2767
ғының	-2768
▁конц	-2769
▁температур	-2770
▁іл	-2771
........	-2772
▁көркем	-2773
▁мәтін	-2774
▁бірдей	-2775
▁азай	-2776
▁бил	-2777
▁ы	-2778
▁ұшыр	-2779
ғысы	-2780
іні	-2781
▁жасауға	-2782
▁қараша	-2783
▁қоя	-2784
есіз	-2785
▁әдебиет	-2786
▁экономика	-2787
▁Көк	-2788
дейді	-2789
дырылған	-2790
ілуі	-2791
ессор	-2792
▁төлеу	-2793
▁жерге	-2794
▁стратег	-2795
тарына	-2796
қатар	-2797
▁дан	-2798
▁мерзім	-2799
▁Президенті	-2800
▁биыл	-2801
▁Қызылорда	-2802
ak	-2803
▁жаңалықтар	-2804
▁соның	-2805
ЕК	-2806
том	-2807
▁тақырыбы	-2808
▁академ	-2809
рамм	-2810
▁Екін	-2811
▁болж	-2812
▁Мектеп	-2813
▁түн	-2814
лады	-2815
▁көл	-2816
▁табыс	-2817
▁Менің	-2818
імділік	-2819
гілер	-2820
▁мақс	-2821
▁баланың	-2822
▁Екі	-2823
▁жоба	-2824
идео	-2825
мейтін	-2826
інді	-2827
▁тасымал	-2828
▁сілтеме	-2829
▁мүд	-2830
▁шеңбер	-2831
сем	-2832
▁аралығында	-2833
▁аст	-2834
▁еркін	-2835
▁тығы	-2836
▁танымал	-2837
▁жұрт	-2838
▁жақсар	-2839
▁Алла	-2840
▁зиян	-2841
ағына	-2842
урет	-2843
таны	-2844
▁маң	-2845
беков	-2846
▁теңіз	-2847
▁бекі	-2848
▁қызығ	-2849
олық	-2850
▁болар	-2851
▁ана	-2852
ланды	-2853
▁үн	-2854
▁халқының	-2855
ІН	-2856
▁қайтал	-2857
▁оқушы	-2858
▁ұрпақ	-2859
▁окру	-2860
▁тұрм	-2861
▁жасайды	-2862
▁дел	-2863
то	-2864
удің	-2865
▁елді	-2866
re	-2867
▁жәр	-2868
сылайша	-2869
тайтын	-2870
тастық	-2871
ии	-2872
▁айтқанда	-2873
ная	-2874
▁құбыл	-2875
▁сөйл	-2876
ыпты	-2877
▁Нұрсұлтан	-2878
▁науқас	-2879
▁Жаз	-2880
▁Ауыл	-2881
▁биік	-2882
▁ауа	-2883
id	-2884
ативтік	-2885
▁жасады	-2886
▁тамыр	-2887
▁Шығыс	-2888
інше	-2889
▁тырыс	-2890
________________	-2891
баева	-2892
гері	-2893
▁орнына	-2894
қаз	-2895
ледж	-2896
▁Себебі	-2897
▁Тек	-2898
▁тұрғы	-2899
ематика	-2900
утбол	-2901
ғылшын	-2902
ut	-2903
▁Обл	-2904
өлік	-2905
ттік	-2906
▁ажыр	-2907
ософ	-2908
▁ерте	-2909
▁сүт	-2910
онавирус	-2911
▁дис	-2912
елердің	-2913
▁ұжым	-2914
▁жой	-2915
егімен	-2916
▁s	-2917
алыс	-2918
қандай	-2919
авлодар	-2920
бан	-2921
▁фильм	-2922
рек	-2923
гімен	-2924
▁оларға	-2925
▁секілді	-2926
кей	-2927
▁үміт	-2928
ся	-2929
тым	-2930
▁әдістер	-2931
ақтары	-2932
▁әкімшілік	-2933
▁рұқсат	-2934
▁жүйесін	-2935
▁өзен	-2936
▁діни	-2937
▁Әлем	-2938
▁куә	-2939
лин	-2940
лде	-2941
▁жаттығ	-2942
ҚО	-2943
▁Жұмыс	-2944
▁оқушылардың	-2945
▁Сем	-2946
▁көріп	-2947
▁үкімет	-2948
оч	-2949
▁Бүгінгі	-2950
▁әдістем	-2951
▁курс	-2952
▁ағым	-2953
гір	-2954
▁дос	-2955
▁тағам	-2956
▁Бірінші	-2957
▁Жамбыл	-2958
гені	-2959
▁өзіндік	-2960
▁мәж	-2961
циялар	-2962
гіл	-2963
▁Ц	-2964
▁мектеб	-2965
ерттеу	-2966
▁отан	-2967
▁Өн	-2968
▁шаралар	-2969
ландыру	-2970
қызы	-2971
▁ойлау	-2972
лат	-2973
▁дамуы	-2974
▁жұмысын	-2975
▁қылмыстық	-2976
алам	-2977
деріне	-2978
ЫЛ	-2979
алап	-2980
un	-2981
▁Қос	-2982
хат	-2983
▁пә	-2984
▁Аб	-2985
▁бөлек	-2986
сың	-2987
▁Астан	-2988
▁жағдайы	-2989
▁реттеу	-2990
аһ	-2991
АЙ	-2992
шілі	-2993
▁тілшісі	-2994
▁Екінші	-2995
▁Еңбек	-2996
жол	-2997
▁дене	-2998
▁көрінеді	-2999
▁маған	-3000
▁құттық	-3001
▁Кеш	-3002
ғақ	-3003
дат	-3004
▁аралас	-3005
▁сәул	-3006
▁қалпына	-3007
шалық	-3008
▁Тұ	-3009
ков	-3010
▁серік	-3011
обиль	-3012
атының	-3013
мотр	-3014
ent	-3015
▁жетістік	-3016
пек	-3017
▁деректер	-3018
▁реда	-3019
тиф	-3020
▁см	-3021
жақты	-3022
▁тұлға	-3023
▁Балалар	-3024
▁ты	-3025
ing	-3026
▁қарау	-3027
лю	-3028
▁қадам	-3029
ылыс	-3030
▁=	-3031
жырым	-3032
▁жұмысы	-3033
▁әлемдік	-3034
▁күнге	-3035
im	-3036
▁мез	-3037
▁бізге	-3038
▁басып	-3039
іңізді	-3040
дес	-3041
гел	-3042
▁Тіл	-3043
дауға	-3044
▁театр	-3045
ДІ	-3046
параттар	-3047
ментар	-3048
▁пайдалануға	-3049
▁сізге	-3050
ik	-3051
алу	-3052
етикалық	-3053
▁марап	-3054
▁ұстан	-3055
▁U	-3056
▁дәстүр	-3057
▁бірқатар	-3058
теріне	-3059
▁дайындық	-3060
▁орташа	-3061
▁диплом	-3062
▁тығыз	-3063
▁мәрте	-3064
▁Ге	-3065
▁қызметінің	-3066
саң	-3067
андыру	-3068
▁жеткен	-3069
▁m	-3070
▁қатысушылар	-3071
▁бірден	-3072
▁айта	-3073
▁режим	-3074
▁онлайн	-3075
ңір	-3076
.-	-3077
інген	-3078
дым	-3079
▁қойған	-3080
▁бл	-3081
▁тұқым	-3082
▁Оны	-3083
▁дал	-3084
▁дегеніміз	-3085
▁син	-3086
орд	-3087
▁тран	-3088
▁алмайды	-3089
еттің	-3090
▁қолға	-3091
кра	-3092
▁бен	-3093
▁министрлігі	-3094
байлас	-3095
▁Батыс	-3096
дігінің	-3097
▁нұсқ	-3098
өмір	-3099
▁Эк	-3100
▁неге	-3101
▁тілін	-3102
▁қаржылық	-3103
▁жерлер	-3104
▁бітір	-3105
▁арқасында	-3106
▁Оған	-3107
ілдіру	-3108
▁әсіресе	-3109
▁кәсіпкерлік	-3110
аст	-3111
егін	-3112
▁Негізгі	-3113
▁Үш	-3114
уч	-3115
▁уә	-3116
▁ашу	-3117
▁жою	-3118
▁қызметкерлері	-3119
▁керемет	-3120
▁уақыты	-3121
▁Әс	-3122
▁жоғарғы	-3123
▁мағын	-3124
▁сәт	-3125
▁сенім	-3126
▁апта	-3127
▁прог	-3128
▁үшінші	-3129
цип	-3130
уде	-3131
алю	-3132
▁мик	-3133
ay	-3134
▁бөлімі	-3135
▁таза	-3136
шылығын	-3137
▁диаг	-3138
▁жалғыз	-3139
▁жетілдіру	-3140
▁басқ	-3141
улар	-3142
адан	-3143
тамасы	-3144
айл	-3145
ламент	-3146
▁компьютер	-3147
▁мүлік	-3148
▁бауыр	-3149
ото	-3150
▁білік	-3151
▁қыш	-3152
▁сақтандыру	-3153
мі	-3154
елек	-3155
ңғыш	-3156
▁содан	-3157
жен	-3158
▁педагогикалық	-3159
▁тигіз	-3160
▁рәс	-3161
форм	-3162
▁ауылдық	-3163
▁Соңғы	-3164
окур	-3165
▁ортақ	-3166
ірек	-3167
▁күл	-3168
▁механ	-3169
▁хабарлады	-3170
▁қазақтың	-3171
▁p	-3172
ымдық	-3173
ымызды	-3174
▁адамды	-3175
▁Сар	-3176
итарлық	-3177
зат	-3178
▁былай	-3179
▁тіркел	-3180
стау	-3181
▁па	-3182
ият	-3183
итал	-3184
▁ауданының	-3185
сылман	-3186
ола	-3187
▁сем	-3188
▁бірлес	-3189
▁пайдалы	-3190
▁айқын	-3191
ch	-3192
ia	-3193
▁азық	-3194
▁қабыр	-3195
▁дүниеге	-3196
▁дәуір	-3197
станай	-3198
▁қорған	-3199
▁тіркеу	-3200
▁Елбасы	-3201
▁Оқу	-3202
мент	-3203
▁жарты	-3204
ихан	-3205
▁Мәс	-3206
▁сенімді	-3207
афед	-3208
▁қамту	-3209
▁ресурстар	-3210
▁оқиға	-3211
▁өлшем	-3212
▁Қасым	-3213
▁үрді	-3214
▁түседі	-3215
▁Тақыр	-3216
шілердің	-3217
▁жаңар	-3218
ных	-3219
ғылар	-3220
▁мүмкіндігі	-3221
▁әдісі	-3222
▁құжат	-3223
▁қоры	-3224
▁азаматтық	-3225
▁шетелдік	-3226
▁ешкім	-3227
▁дар	-3228
▁Тү	-3229
▁жұмс	-3230
▁тарапынан	-3231
▁түсіп	-3232
▁бағасы	-3233
▁алмас	-3234
ическ	-3235
▁прин	-3236
▁басында	-3237
▁қанша	-3238
▁Кар	-3239
▁Қазақстандағы	-3240
қаев	-3241
кесі	-3242
▁мұқ	-3243
▁салынған	-3244
актикалық	-3245
▁басш	-3246
▁құндылық	-3247
дыңғы	-3248
▁үкім	-3249
▁Пай	-3250
tp	-3251
▁Таб	-3252
▁яз	-3253
▁без	-3254
лерінің	-3255
іске	-3256
▁шығады	-3257
▁үнемі	-3258
▁күм	-3259
▁Павлодар	-3260
▁Содан	-3261
ашар	-3262
▁министрі	-3263
▁әкімінің	-3264
▁қарыз	-3265
біт	-3266
▁Дем	-3267
циал	-3268
▁болмаса	-3269
▁қым	-3270
▁қызыл	-3271
▁клуб	-3272
аларына	-3273
Сұлтан	-3274
▁лауаз	-3275
▁білдіреді	-3276
▁маг	-3277
▁күт	-3278
▁тұрып	-3279
▁жұқ	-3280
▁көзі	-3281
▁дамуына	-3282
тқан	-3283
иялар	-3284
▁Ғылым	-3285
▁жүйесінің	-3286
▁жұмысқа	-3287
▁басқармасының	-3288
▁тағайын	-3289
▁жұмыстарын	-3290
▁тұжырым	-3291
▁ген	-3292
▁Үкімет	-3293
▁Ю	-3294
▁мәні	-3295
▁түрінде	-3296
йық	-3297
▁саласында	-3298
▁Мәсел	-3299
▁кішкен	-3300
▁нәрсе	-3301
▁Әде	-3302
аза	-3303
▁балалардың	-3304
▁күз	-3305
▁өрт	-3306
рон	-3307
Нұр	-3308
▁сапалы	-3309
▁бө	-3310
▁аман	-3311
азы	-3312
▁Кү	-3313
▁киім	-3314
▁экс	-3315
▁оп	-3316
осмотр	-3317
▁қарамастан	-3318
курс	-3319
▁колледж	-3320
ізді	-3321
http	-3322
▁бөлімінің	-3323
▁b	-3324
ақым	-3325
▁әлде	-3326
стің	-3327
▁кин	-3328
адр	-3329
▁депут	-3330
▁Су	-3331
▁нас	-3332
аларында	-3333
▁тәуелсіз	-3334
▁соқ	-3335
едер	-3336
▁көмегімен	-3337
лығына	-3338
▁сабақтар	-3339
▁құрылысы	-3340
дығына	-3341
▁Әді	-3342
▁айналым	-3343
://	-3344
▁агентті	-3345
ахаб	-3346
імпаз	-3347
▁құрылған	-3348
▁элементтер	-3349
▁Деген	-3350
сенбі	-3351
СР	-3352
ІМ	-3353
▁жобасы	-3354
▁субъ	-3355
▁Басты	-3356
▁Кәсіп	-3357
▁еңб	-3358
▁Жоғары	-3359
ғашқы	-3360
KZ	-3361
▁бөлінеді	-3362
▁жігіт	-3363
етер	-3364
▁Банк	-3365
▁мәселесі	-3366
▁жөндеу	-3367
▁жын	-3368
▁док	-3369
▁интернет	-3370
▁Бек	-3371
тифик	-3372
▁шамамен	-3373
▁атын	-3374
▁қаржыл	-3375
▁In	-3376
ындығы	-3377
айында	-3378
▁шебер	-3379
▁істейді	-3380
▁кур	-3381
▁аталады	-3382
икл	-3383
ag	-3384
▁бақыт	-3385
▁тұлғалар	-3386
▁жазған	-3387
ауап	-3388
▁Гүл	-3389
▁белгіленген	-3390
▁заңнам	-3391
ференция	-3392
▁Яғни	-3393
басының	-3394
▁жұлдыз	-3395
▁шұ	-3396
үни	-3397
▁жасай	-3398
▁Пол	-3399
кр	-3400
▁көрм	-3401
▁түсіндіру	-3402
ида	-3403
▁мерзімді	-3404
▁пор	-3405
▁игер	-3406
▁жасыр	-3407
пей	-3408
▁қыркүйек	-3409
▁деңгейі	-3410
ығымен	-3411
▁Биыл	-3412
ева	-3413
▁мемлекеттің	-3414
▁өндірістік	-3415
▁Тау	-3416
▁тобы	-3417
▁еске	-3418
▁Сөй	-3419
▁қалады	-3420
ЕС	-3421
иясын	-3422
▁терге	-3423
▁беруге	-3424
торы	-3425
▁сұран	-3426
▁Тем	-3427
▁бөліс	-3428
▁балаларға	-3429
за	-3430
▁неси	-3431
рине	-3432
иет	-3433
▁марапат	-3434
▁институт	-3435
▁сезім	-3436
анс	-3437
ісінің	-3438
▁тауып	-3439
ной	-3440
▁қайрат	-3441
▁күніне	-3442
▁ынтымақтастық	-3443
атқан	-3444
▁жазып	-3445
саңыз	-3446
тқар	-3447
▁Дегенмен	-3448
кин	-3449
тенше	-3450
▁дайындау	-3451
дағал	-3452
ермен	-3453
▁ради	-3454
▁Алматыда	-3455
ткіш	-3456
ежүз	-3457
аларда	-3458
істің	-3459
▁футбол	-3460
▁Кр	-3461
ияны	-3462
▁құм	-3463
▁сим	-3464
дарымен	-3465
▁Солтүстік	-3466
em	-3467
акц	-3468
АМ	-3469
емьер	-3470
▁шешу	-3471
рав	-3472
ov	-3473
▁бекіту	-3474
деуге	-3475
▁өздерінің	-3476
▁ерекшелі	-3477
▁жауапты	-3478
аяу	-3479
▁көшір	-3480
▁даяр	-3481
▁Ахмет	-3482
▁соңында	-3483
▁мұғалім	-3484
▁шабуыл	-3485
▁берілді	-3486
етінде	-3487
!»	-3488
ru	-3489
▁Наурыз	-3490
▁табиғат	-3491
мас	-3492
ғаның	-3493
ыңызды	-3494
ифр	-3495
▁Гер	-3496
▁коммун	-3497
▁қақ	-3498
▁c	-3499
▁Сал	-3500
of	-3501
▁мынадай	-3502
▁кедер	-3503
орум	-3504
улы	-3505
▁өтетін	-3506
▁бөлік	-3507
ыка	-3508
▁пе	-3509
▁біріктір	-3510
▁//	-3511
▁желі	-3512
ографиялық	-3513
▁тип	-3514
инистр	-3515
▁Осыған	-3516
▁несие	-3517
▁қайтыс	-3518
▁құны	-3519
▁бұйр	-3520
мә	-3521
▁айырма	-3522
▁азамат	-3523
▁Түрк	-3524
ить	-3525
телген	-3526
▁қаш	-3527
ех	-3528
ОЛ	-3529
егей	-3530
ном	-3531
▁порт	-3532
▁кезеңі	-3533
дениет	-3534
естік	-3535
іңізге	-3536
▁түп	-3537
▁арда	-3538
бей	-3539
▁шо	-3540
али	-3541
▁аға	-3542
иза	-3543
▁ұқсас	-3544
▁тыйым	-3545
ции	-3546
▁коронавирус	-3547
дерде	-3548
▁қоршаған	-3549
▁Өмір	-3550
▁төменгі	-3551
үк	-3552
дардан	-3553
▁ғасырдың	-3554
▁ақпаратты	-3555
дыққа	-3556
▁қонақ	-3557
▁Тал	-3558
▁жауапкершілік	-3559
▁Шар	-3560
▁мәс	-3561
саулық	-3562
▁машин	-3563
▁есім	-3564
▁қосу	-3565
▁тор	-3566
тілігі	-3567
ларына	-3568
▁Сан	-3569
▁көрсетті	-3570
рад	-3571
▁президенті	-3572
▁Амер	-3573
АУ	-3574
▁термин	-3575
му	-3576
▁оз	-3577
▁айтылған	-3578
едит	-3579
ья	-3580
елгі	-3581
тілігін	-3582
▁из	-3583
озиция	-3584
▁аурухан	-3585
▁нұсқау	-3586
рен	-3587
ЫҢ	-3588
▁мөлшері	-3589
▁бере	-3590
▁Электр	-3591
▁зат	-3592
▁стандарт	-3593
].	-3594
спір	-3595
аңғыстау	-3596
▁сөйлем	-3597
▁ə	-3598
стары	-3599
ыма	-3600
▁жолдары	-3601
▁өлтір	-3602
итын	-3603
өспір	-3604
▁төменде	-3605
цен	-3606
▁класс	-3607
▁Ақпарат	-3608
▁қашық	-3609
▁Іш	-3610
Мен	-3611
▁кафед	-3612
▁департамент	-3613
▁сл	-3614
▁ағылшын	-3615
ағыз	-3616
▁учас	-3617
▁сату	-3618
▁аймақтар	-3619
▁Әрине	-3620
▁Жә	-3621
▁нөмір	-3622
▁кезеңде	-3623
▁Тарих	-3624
▁нам	-3625
бал	-3626
▁Алтын	-3627
▁кіріс	-3628
▁Просмотр	-3629
▁жетті	-3630
нама	-3631
▁қап	-3632
мар	-3633
сылық	-3634
▁Топ	-3635
▁хабарлам	-3636
▁өзгерту	-3637
малы	-3638
▁Бұған	-3639
▁дүние	-3640
?»	-3641
▁халқы	-3642
▁басталды	-3643
▁Төл	-3644
▁жасқа	-3645
шама	-3646
▁зауыт	-3647
ного	-3648
▁Кен	-3649
▁қалыптастыр	-3650
▁қымбат	-3651
▁команда	-3652
▁Жет	-3653
▁музык	-3654
▁Мү	-3655
▁Жаңалықтар	-3656
▁деңгейде	-3657
▁өнімді	-3658
термен	-3659
тарда	-3660
▁ыңғай	-3661
өңг	-3662
ыңызға	-3663
▁ешқандай	-3664
әрі	-3665
▁Тер	-3666
▁дәстүрлі	-3667
▁Осылайша	-3668
▁Фран	-3669
баб	-3670
▁қаласындағы	-3671
▁кепіл	-3672
ail	-3673
▁сапар	-3674
▁прокур	-3675
▁нығ	-3676
олю	-3677
қында	-3678
Жас	-3679
аяқ	-3680
▁пре	-3681
осын	-3682
▁піш	-3683
▁министрлігінің	-3684
ot	-3685
▁Тәрби	-3686
▁кездеседі	-3687
▁тапсырма	-3688
▁Сау	-3689
▁мүшесі	-3690
▁қадағал	-3691
▁кодек	-3692
▁тапқан	-3693
▁_	-3694
Біз	-3695
ДЕ	-3696
▁Тоқаев	-3697
▁таны	-3698
▁бірлест	-3699
▁туында	-3700
▁Ата	-3701
▁бетін	-3702
ланып	-3703
▁өркен	-3704
дырады	-3705
дин	-3706
імізге	-3707
экономикалық	-3708
▁балық	-3709
ырман	-3710
▁жағым	-3711
дырып	-3712
кон	-3713
▁дауыс	-3714
сөз	-3715
▁басылым	-3716
▁есептеу	-3717
▁тай	-3718
ғып	-3719
еттерді	-3720
▁кітапхан	-3721
ром	-3722
дықты	-3723
ауи	-3724
▁Қара	-3725
ter	-3726
▁Жүр	-3727
▁Мәскеу	-3728
▁Интер	-3729
▁құқы	-3730
▁зал	-3731
▁экологиялық	-3732
дель	-3733
▁болмаған	-3734
▁Кі	-3735
▁ұстап	-3736
▁әдебиеті	-3737
леріне	-3738
▁Казах	-3739
▁бастам	-3740
▁Басқа	-3741
етке	-3742
▁өнеркәсіп	-3743
▁белгілер	-3744
іңді	-3745
▁Онда	-3746
▁сыйлық	-3747
▁сұл	-3748
▁ойлай	-3749
шіл	-3750
әз	-3751
▁Айта	-3752
▁қайн	-3753
▁құқ	-3754
▁Кеңес	-3755
лым	-3756
ократ	-3757
▁От	-3758
▁бап	-3759
дустр	-3760
шінің	-3761
▁қызықты	-3762
▁Аман	-3763
▁отырады	-3764
інесе	-3765
▁құй	-3766
▁принцип	-3767
әкір	-3768
▁Аудан	-3769
▁кіт	-3770
▁қызметтер	-3771
▁қызметіне	-3772
▁жаман	-3773
терлік	-3774
▁меңгеру	-3775
▁тұз	-3776
изация	-3777
▁Өзбек	-3778
and	-3779
▁алға	-3780
ахмет	-3781
▁болғандықтан	-3782
аттан	-3783
алдар	-3784
▁Қостанай	-3785
▁көмір	-3786
▁шығу	-3787
▁топырақ	-3788
імізде	-3789
шалықты	-3790
ir	-3791
▁электрондық	-3792
▁бейім	-3793
ория	-3794
▁мұра	-3795
кері	-3796
аметр	-3797
▁біраз	-3798
ком	-3799
▁көзқарас	-3800
▁піс	-3801
▁Жап	-3802
▁доллар	-3803
▁каб	-3804
▁профессор	-3805
▁философ	-3806
▁мұсылман	-3807
▁қойды	-3808
▁құп	-3809
▁d	-3810
ымызға	-3811
▁кісі	-3812
▁ми	-3813
импиада	-3814
дандыру	-3815
▁валю	-3816
ари	-3817
▁таныстыр	-3818
▁қалың	-3819
таж	-3820
▁ис	-3821
▁теңгеге	-3822
▁шал	-3823
▁бағдарлама	-3824
▁қоңыр	-3825
түлік	-3826
▁әйелдер	-3827
▁Төр	-3828
▁туынды	-3829
eb	-3830
бес	-3831
▁бөлу	-3832
▁меншік	-3833
▁кетеді	-3834
▁жарақ	-3835
▁Құдай	-3836
▁бара	-3837
ода	-3838
▁Просмотров	-3839
▁мүл	-3840
▁толтыр	-3841
▁экономик	-3842
емат	-3843
ОР	-3844
▁үйрету	-3845
▁мәсл	-3846
▁көрсеткен	-3847
▁буын	-3848
▁алғыс	-3849
▁арман	-3850
бұл	-3851
▁көрсетіп	-3852
▁Еуропа	-3853
▁Азам	-3854
езентация	-3855
уін	-3856
▁ашып	-3857
атылған	-3858
▁Автор	-3859
▁Орта	-3860
▁Конститу	-3861
ерв	-3862
новациялық	-3863
▁ит	-3864
▁км	-3865
▁мұғалімдер	-3866
▁Сыр	-3867
▁негізі	-3868
▁басқармасы	-3869
▁Мәселен	-3870
▁қайыр	-3871
▁Қаб	-3872
ине	-3873
▁Іс	-3874
▁жеткілікті	-3875
икация	-3876
▁жазба	-3877
ре	-3878
▁кіші	-3879
ұрын	-3880
▁керекті	-3881
▁сөйлеу	-3882
▁алғанда	-3883
▁біт	-3884
▁Бұдан	-3885
▁аймағ	-3886
мау	-3887
▁қойылған	-3888
▁Семей	-3889
ықтыру	-3890
▁сапасын	-3891
ометр	-3892
▁қысым	-3893
pp	-3894
▁кәсіпкерлер	-3895
ышты	-3896
▁негізделген	-3897
таның	-3898
ное	-3899
ух	-3900
▁желілер	-3901
Қар	-3902
далды	-3903
▁тонна	-3904
тауға	-3905
▁жүйе	-3906
▁Дә	-3907
▁жылу	-3908
ицей	-3909
▁келтіру	-3910
Астана	-3911
▁парақ	-3912
га	-3913
ғұр	-3914
▁кейіп	-3915
ІЛ	-3916
▁жалғастыр	-3917
▁боя	-3918
▁Сұр	-3919
▁Өткен	-3920
омарт	-3921
мола	-3922
▁білімді	-3923
▁жеңімпаз	-3924
▁көмектеседі	-3925
▁ауыстыр	-3926
▁нығай	-3927
▁президент	-3928
пейді	-3929
▁ерекшеліктері	-3930
▁Комментар	-3931
▁жүргізіледі	-3932
ушілер	-3933
▁нашар	-3934
уд	-3935
▁құрады	-3936
▁қауіпті	-3937
▁баб	-3938
▁мил	-3939
▁Сай	-3940
екі	-3941
▁мүдде	-3942
пын	-3943
▁Кейін	-3944
▁Маңғыстау	-3945
▁вакц	-3946
лор	-3947
▁алқ	-3948
▁тура	-3949
атынын	-3950
▁өлім	-3951
ыбы	-3952
▁білуге	-3953
ілуде	-3954
▁арх	-3955
▁алдағы	-3956
▁салдарынан	-3957
▁жауын	-3958
ирек	-3959
сынып	-3960
таб	-3961
▁дүкен	-3962
▁Сая	-3963
▁кін	-3964
▁күндері	-3965
инал	-3966
▁мұғалімі	-3967
▁белгілері	-3968
▁қойып	-3969
▁сезін	-3970
▁ұрп	-3971
▁меші	-3972
▁бірлік	-3973
▁жылда	-3974
▁Сонда	-3975
▁сайты	-3976
▁алты	-3977
▁көпшілік	-3978
ушылардың	-3979
▁Жең	-3980
▁астан	-3981
▁негізінен	-3982
▁басшысының	-3983
тұ	-3984
гершілік	-3985
▁тағдыр	-3986
ҰР	-3987
▁жұмыспен	-3988
▁гип	-3989
тек	-3990
терде	-3991
ациясы	-3992
▁ауданында	-3993
▁Мұғал	-3994
иннің	-3995
▁кері	-3996
▁сөзі	-3997
▁орман	-3998
ig	-3999
СТАН	-4000
!!	-4001
▁тіршілік	-4002
лігіне	-4003
▁реак	-4004
▁капитал	-4005
▁Қырғыз	-4006
ұрылым	-4007
Бұл	-4008
атар	-4009
▁қабілет	-4010
арма	-4011
▁қолайлы	-4012
▁дамытуға	-4013
аби	-4014
▁сүйен	-4015
▁стат	-4016
ғыру	-4017
▁аумағында	-4018
▁шаң	-4019
▁өсіп	-4020
амаша	-4021
ul	-4022
▁құрамында	-4023
▁терр	-4024
▁әдемі	-4025
▁адал	-4026
▁едім	-4027
▁қосп	-4028
▁қалам	-4029
▁бөлімш	-4030
▁ұсынады	-4031
▁ста	-4032
▁мүшелері	-4033
▁қолдануға	-4034
дә	-4035
▁әзірлеу	-4036
▁бастапқы	-4037
▁Міне	-4038
▁жеті	-4039
▁диз	-4040
▁істейтін	-4041
ісіне	-4042
▁әдет	-4043
▁актив	-4044
ле	-4045
▁жүлде	-4046
▁Әлеуметтік	-4047
▁мәлімет	-4048
амбет	-4049
Мұ	-4050
▁басталады	-4051
▁құрамы	-4052
▁қызық	-4053
▁орталығының	-4054
▁тәртіб	-4055
иалы	-4056
▁бұған	-4057
▁сор	-4058
▁үлес	-4059
▁бөліп	-4060
▁Ұйым	-4061
▁Ту	-4062
▁тұрғыдан	-4063
▁Өнер	-4064
▁қуаныш	-4065
тикалық	-4066
▁Мұнда	-4067
бел	-4068
тылды	-4069
▁ыстық	-4070
▁мерзімі	-4071
▁қаза	-4072
ритан	-4073
▁Ак	-4074
▁өзінде	-4075
леп	-4076
теледі	-4077
▁қалыпты	-4078
Ар	-4079
▁анықталды	-4080
▁тіркелген	-4081
едиц	-4082
▁рефер	-4083
▁өсір	-4084
▁Осындай	-4085
▁ағз	-4086
▁http	-4087
▁құқығы	-4088
▁оқырман	-4089
ИЯ	-4090
▁баласы	-4091
▁қатынастар	-4092
▁зардап	-4093
сің	-4094
▁Біл	-4095
стем	-4096
ІК	-4097
Ай	-4098
▁топқа	-4099
▁сіңір	-4100
еств	-4101
▁Дүни	-4102
ірт	-4103
▁шағым	-4104
▁салмақ	-4105
▁сұх	-4106
арн	-4107
▁етуге	-4108
ияр	-4109
▁қатысқан	-4110
елерге	-4111
▁екендігін	-4112
тон	-4113
▁қанағат	-4114
▁әдістері	-4115
▁саналады	-4116
▁ос	-4117
▁мыңнан	-4118
▁бастайды	-4119
▁дәрі	-4120
Бір	-4121
ЕМ	-4122
▁Ислам	-4123
▁қыл	-4124
техникалық	-4125
▁қысқар	-4126
▁си	-4127
ЕЛ	-4128
герлер	-4129
▁бау	-4130
мон	-4131
▁түб	-4132
▁мысалы	-4133
бап	-4134
▁зақым	-4135
▁ұсыныстар	-4136
▁Сын	-4137
▁бөлм	-4138
▁адамдарға	-4139
▁кіл	-4140
▁эксп	-4141
▁Қу	-4142
▁Сіздің	-4143
чать	-4144
▁жолау	-4145
▁мәжб	-4146
▁зерттеулер	-4147
бірек	-4148
▁құнды	-4149
тим	-4150
▁мені	-4151
ота	-4152
▁бәрін	-4153
▁Укра	-4154
▁психологиялық	-4155
▁Тур	-4156
▁шақ	-4157
▁Кейбір	-4158
ымш	-4159
ое	-4160
бр	-4161
▁салтан	-4162
▁ескерткіш	-4163
жас	-4164
дама	-4165
▁партия	-4166
дігіне	-4167
▁рез	-4168
▁кетейік	-4169
▁Серік	-4170
▁бұйым	-4171
сон	-4172
▁қорытындысы	-4173
министр	-4174
ежүзілік	-4175
▁казах	-4176
▁құрылымы	-4177
▁қатаң	-4178
ғына	-4179
▁жағдайларда	-4180
▁салыстырғанда	-4181
қимыл	-4182
▁кіреді	-4183
▁Үл	-4184
▁деңгейін	-4185
▁Алғашқы	-4186
▁бірін	-4187
қу	-4188
көз	-4189
▁Орал	-4190
амы	-4191
▁Жел	-4192
ности	-4193
▁ті	-4194
▁оқы	-4195
▁Жеке	-4196
▁кейде	-4197
▁кли	-4198
қымды	-4199
▁материалдық	-4200
жал	-4201
▁жаңалықтары	-4202
▁елге	-4203
қайс	-4204
▁насихат	-4205
▁образ	-4206
▁поэ	-4207
▁Тәуелсіздік	-4208
▁жарияланған	-4209
▁Одан	-4210
▁ыл	-4211
қыту	-4212
▁өзекті	-4213
▁мазмұны	-4214
▁a	-4215
▁күнделікті	-4216
ip	-4217
▁көбей	-4218
ство	-4219
▁бейне	-4220
▁кафедр	-4221
▁күшті	-4222
кономика	-4223
▁университеті	-4224
▁Денсаулық	-4225
елеріне	-4226
▁оқуға	-4227
▁ашылды	-4228
анған	-4229
өк	-4230
дарлам	-4231
▁терез	-4232
▁тәжірибе	-4233
▁Сөз	-4234
▁Тол	-4235
▁іздеу	-4236
▁дамыған	-4237
▁жасөспір	-4238
▁бор	-4239
ерлер	-4240
шағы	-4241
▁қоғамның	-4242
▁бекітілген	-4243
▁қатын	-4244
▁медицина	-4245
▁істеп	-4246
гедек	-4247
ох	-4248
▁құбыр	-4249
com	-4250
қынды	-4251
▁үстіне	-4252
▁серікте	-4253
еуге	-4254
лекс	-4255
▁St	-4256
іме	-4257
▁Ая	-4258
▁мак	-4259
▁актілер	-4260
▁тізім	-4261
▁жалғас	-4262
▁этн	-4263
▁Әу	-4264
▁тен	-4265
▁жемқорлыққа	-4266
▁табу	-4267
дын	-4268
▁f	-4269
▁қосқан	-4270
▁орналастыр	-4271
▁қосылған	-4272
▁Ақмола	-4273
лайды	-4274
▁БАҚ	-4275
▁жолын	-4276
▁дәм	-4277
▁гран	-4278
▁Өзбекстан	-4279
▁оқулық	-4280
▁Қазақша	-4281
▁балабақ	-4282
oc	-4283
▁жақында	-4284
▁сақтал	-4285
▁мектебі	-4286
ларда	-4287
▁құралы	-4288
▁қаул	-4289
▁қолданылатын	-4290
ғамбар	-4291
▁орнын	-4292
атуға	-4293
stan	-4294
?!	-4295
▁атқарушы	-4296
▁жаңғыру	-4297
▁қызметті	-4298
▁әріпте	-4299
▁салт	-4300
▁оңтүстік	-4301
▁Жи	-4302
▁Май	-4303
лав	-4304
▁Соның	-4305
ОВ	-4306
▁ері	-4307
▁мәлімдеді	-4308
▁әңгіме	-4309
▁жасал	-4310
▁кішкентай	-4311
▁екені	-4312
▁басын	-4313
▁Герман	-4314
тарлықтай	-4315
▁өмірі	-4316
▁қауымдас	-4317
▁сыбайлас	-4318
есімен	-4319
▁сектор	-4320
өнер	-4321
▁тұрғындары	-4322
op	-4323
теуге	-4324
лайд	-4325
▁ортаға	-4326
▁Бүгінде	-4327
▁раз	-4328
▁әдетте	-4329
▁әсері	-4330
▁көктем	-4331
тінді	-4332
▁Инф	-4333
▁тамаша	-4334
өң	-4335
▁жағдайында	-4336
▁спор	-4337
Ин	-4338
▁химиялық	-4339
ыстағы	-4340
▁комитетінің	-4341
▁мамандар	-4342
▁факульт	-4343
iv	-4344
▁университетінің	-4345
▁отырғыз	-4346
▁уақытша	-4347
уля	-4348
▁орнату	-4349
ушының	-4350
▁Темір	-4351
▁Мәдениет	-4352
▁болсақ	-4353
▁зейнетақы	-4354
амды	-4355
естив	-4356
гүл	-4357
os	-4358
ығында	-4359
▁жазады	-4360
▁қышқыл	-4361
арыш	-4362
урок	-4363
▁білген	-4364
▁Ойын	-4365
▁мәжбүр	-4366
▁иелен	-4367
▁шығарып	-4368
▁Дос	-4369
▁үстел	-4370
▁біледі	-4371
ымдылық	-4372
▁видео	-4373
▁жапыр	-4374
чен	-4375
▁мәртеб	-4376
▁Техн	-4377
▁сп	-4378
▁Қаржы	-4379
▁айтарлықтай	-4380
▁жаңғыр	-4381
▁шекар	-4382
▁тасымалдау	-4383
лов	-4384
▁аламыз	-4385
сінің	-4386
▁дом	-4387
пайды	-4388
▁комиссия	-4389
▁Үкім	-4390
▁шот	-4391
▁халыққа	-4392
))	-4393
um	-4394
дәр	-4395
метті	-4396
▁Мұр	-4397
ындайды	-4398
▁қосып	-4399
шау	-4400
жи	-4401
▁асырылады	-4402
▁болғаны	-4403
▁дөңг	-4404
алармен	-4405
ation	-4406
▁түрлерін	-4407
▁құрамына	-4408
▁өткізді	-4409
ымның	-4410
▁нәтижесі	-4411
итр	-4412
▁есебінен	-4413
▁салған	-4414
▁Комментариев	-4415
ҒЫ	-4416
фф	-4417
▁иесі	-4418
ыңдар	-4419
қол	-4420
▁Шын	-4421
осфер	-4422
▁Аталған	-4423
тег	-4424
▁саласы	-4425
▁аталатын	-4426
▁шик	-4427
▁сауал	-4428
ондық	-4429
▁кедергі	-4430
▁алдыңғы	-4431
▁мақсаттар	-4432
паниясы	-4433
▁есепке	-4434
▁пайызға	-4435
рақұрылым	-4436
▁қашан	-4437
палы	-4438
▁ішіндегі	-4439
быз	-4440
▁айналды	-4441
▁кеңінен	-4442
▁орынды	-4443
▁жеткізді	-4444
▁милли	-4445
▁граф	-4446
самбл	-4447
▁конференция	-4448
даның	-4449
▁Бөл	-4450
▁пәні	-4451
▁атауы	-4452
▁бастал	-4453
▁білдірді	-4454
лауға	-4455
▁болуға	-4456
▁қару	-4457
истикалық	-4458
▁рух	-4459
▁эн	-4460
гу	-4461
▁үйде	-4462
Бал	-4463
▁қатысып	-4464
▁балаларды	-4465
кетинг	-4466
▁күдік	-4467
▁зер	-4468
▁жалған	-4469
▁қабырғ	-4470
▁елімізде	-4471
▁in	-4472
оск	-4473
▁форум	-4474
▁авток	-4475
▁жайында	-4476
▁жері	-4477
есің	-4478
▁төз	-4479
▁сертифик	-4480
рация	-4481
▁көрсетілетін	-4482
▁электронды	-4483
тыңыз	-4484
▁Q	-4485
▁төлен	-4486
▁қайда	-4487
дыратын	-4488
ском	-4489
▁материалдар	-4490
гор	-4491
▁барынша	-4492
▁саясаты	-4493
▁ортаны	-4494
оген	-4495
▁қалыптасқан	-4496
иға	-4497
айн	-4498
▁асыл	-4499
▁тәрізді	-4500
▁канди	-4501
качать	-4502
ивті	-4503
герлік	-4504
▁жинағы	-4505
екен	-4506
есіндегі	-4507
дастыру	-4508
▁әлемдегі	-4509
сіп	-4510
▁заманауи	-4511
▁кету	-4512
▁кетіп	-4513
▁басынан	-4514
▁акция	-4515
ланд	-4516
▁қашықтық	-4517
▁өнімдері	-4518
оң	-4519
▁тегі	-4520
▁ауд	-4521
▁мектепке	-4522
▁тәртібі	-4523
▁шеңберінде	-4524
▁Дәр	-4525
▁отандық	-4526
▁көбірек	-4527
ІІ	-4528
нир	-4529
▁кадр	-4530
▁бөлігін	-4531
▁теле	-4532
еттік	-4533
▁Кер	-4534
▁берм	-4535
изика	-4536
апар	-4537
ысымен	-4538
▁жинау	-4539
мыш	-4540
масы	-4541
▁Келесі	-4542
www	-4543
▁пош	-4544
▁күннен	-4545
▁көбінесе	-4546
дайтын	-4547
▁құралдары	-4548
тұр	-4549
▁пәтер	-4550
▁Тіпті	-4551
▁тұтас	-4552
сір	-4553
ахаббат	-4554
дауы	-4555
аю	-4556
▁туризм	-4557
▁құтқар	-4558
▁тұт	-4559
егіне	-4560
▁Өндір	-4561
аулы	-4562
▁кезек	-4563
десу	-4564
▁жаттығу	-4565
▁са	-4566
пір	-4567
▁жүреді	-4568
Алматы	-4569
▁қазақша	-4570
▁қосыл	-4571
engr	-4572
мерциялық	-4573
анның	-4574
▁бейбіт	-4575
▁Табиғ	-4576
▁жерден	-4577
▁басталған	-4578
▁медал	-4579
шілері	-4580
▁Бақыт	-4581
”,	-4582
зақ	-4583
фр	-4584
▁келсе	-4585
▁пан	-4586
▁Зерттеу	-4587
▁мәселелерді	-4588
▁процестер	-4589
▁өкілі	-4590
жанов	-4591
▁пал	-4592
▁мықты	-4593
дырған	-4594
▁сақтап	-4595
▁жатқанын	-4596
▁теріс	-4597
▁қажеттілік	-4598
▁ізден	-4599
лу	-4600
▁шынайы	-4601
▁үлесі	-4602
▁лог	-4603
▁Әкім	-4604
қал	-4605
стру	-4606
ct	-4607
▁технологиялар	-4608
ленген	-4609
▁көрсететін	-4610
естің	-4611
▁ұстау	-4612
пін	-4613
▁тым	-4614
оны	-4615
▁әлеу	-4616
▁мұнда	-4617
▁%	-4618
бұ	-4619
est	-4620
▁құс	-4621
дану	-4622
▁орындай	-4623
▁басы	-4624
▁өткізілді	-4625
мунал	-4626
▁фот	-4627
тасына	-4628
ықтық	-4629
▁сатыл	-4630
шаралар	-4631
▁жам	-4632
▁ном	-4633
▁Нар	-4634
▁келгенде	-4635
▁инфрақұрылым	-4636
майтын	-4637
ess	-4638
▁берілетін	-4639
қаб	-4640
ішке	-4641
▁технологиялық	-4642
▁тергеу	-4643
▁солтүстік	-4644
▁Тағы	-4645
СП	-4646
тейді	-4647
▁көшесі	-4648
зан	-4649
▁айр	-4650
▁жұмыстың	-4651
▁қылмыс	-4652
тылай	-4653
ex	-4654
тель	-4655
▁кв	-4656
▁негізін	-4657
▁бокс	-4658
▁Қазақстандық	-4659
▁сапасы	-4660
пі	-4661
▁Мұхам	-4662
▁аппарат	-4663
▁Мұх	-4664
▁білетін	-4665
▁үйдің	-4666
▁ЖО	-4667
▁боп	-4668
нит	-4669
атына	-4670
▁бүй	-4671
▁шап	-4672
тақ	-4673
▁теориялық	-4674
іктеу	-4675
▁инфекция	-4676
▁ұмыт	-4677
едия	-4678
▁нәрс	-4679
ұлының	-4680
▁азаматтардың	-4681
▁ром	-4682
ыңды	-4683
▁үдер	-4684
Жомарт	-4685
▁бұзушылық	-4686
▁тартып	-4687
▁өш	-4688
жей	-4689
▁раб	-4690
▁Оқушылардың	-4691
ура	-4692
▁инвестициялық	-4693
әлі	-4694
▁газеті	-4695
▁бұрыш	-4696
▁алдына	-4697
ықтың	-4698
▁Z	-4699
дерінде	-4700
▁тапты	-4701
▁Сырт	-4702
ІР	-4703
тармен	-4704
МД	-4705
▁Мәж	-4706
вер	-4707
▁ерекшелігі	-4708
▁жәрдем	-4709
▁язык	-4710
ғалы	-4711
▁шол	-4712
зыр	-4713
▁Ен	-4714
▁Астанада	-4715
▁шақырым	-4716
▁әкімдігінің	-4717
тырып	-4718
▁болғанын	-4719
▁Өл	-4720
езов	-4721
▁қалдық	-4722
ативті	-4723
есте	-4724
▁компаниясы	-4725
▁жетекшісі	-4726
▁тәуелді	-4727
▁еж	-4728
ook	-4729
▁Сот	-4730
шарт	-4731
ub	-4732
атында	-4733
ісінде	-4734
▁механизм	-4735
▁жағдайын	-4736
gram	-4737
▁реформ	-4738
▁сұхбат	-4739
ЫР	-4740
▁Алаш	-4741
амер	-4742
▁Ос	-4743
▁жоспарлау	-4744
▁филиал	-4745
▁Tengr	-4746
▁Қау	-4747
сеңіз	-4748
ағында	-4749
кцион	-4750
▁жазды	-4751
▁шешімдер	-4752
▁туғыз	-4753
же	-4754
▁Ат	-4755
▁өздері	-4756
od	-4757
тырған	-4758
▁табылатын	-4759
▁Айт	-4760
▁Кеше	-4761
▁мейрам	-4762
▁Нәтиж	-4763
▁елде	-4764
яд	-4765
ят	-4766
▁мүгедек	-4767
актер	-4768
▁конкурс	-4769
▁демалыс	-4770
▁тыныс	-4771
▁тұрақ	-4772
▁кәсіпкер	-4773
▁байқалады	-4774
▁Ішкі	-4775
ығырақ	-4776
▁күші	-4777
▁алмады	-4778
антин	-4779
▁кезеңінде	-4780
▁жасыл	-4781
▁жүзінде	-4782
▁айналған	-4783
етіне	-4784
▁аул	-4785
▁Дерек	-4786
▁тыныш	-4787
▁объектілер	-4788
▁әлемнің	-4789
▁беріл	-4790
ЫЗ	-4791
сай	-4792
▁Көптеген	-4793
▁корпор	-4794
▁себепті	-4795
абаев	-4796
▁қаржыландыру	-4797
▁жазб	-4798
▁тәуекел	-4799
▁заңсыз	-4800
Қыз	-4801
▁команд	-4802
▁тапсырыс	-4803
▁КСР	-4804
ГІ	-4805
зал	-4806
▁белгісі	-4807
▁қағид	-4808
▁цифр	-4809
▁отбасылар	-4810
юр	-4811
ИК	-4812
▁Қа	-4813
лыққа	-4814
тылады	-4815
▁ах	-4816
▁жататын	-4817
ілеу	-4818
▁барады	-4819
▁жүйелі	-4820
▁лауазым	-4821
АЛЫҚ	-4822
▁баған	-4823
▁Бала	-4824
▁дегенде	-4825
▁шара	-4826
аттардың	-4827
біріне	-4828
▁редак	-4829
Жаң	-4830
ларында	-4831
есті	-4832
▁қатарына	-4833
ібек	-4834
▁атайды	-4835
▁негіздері	-4836
іңіздің	-4837
▁семинар	-4838
ным	-4839
▁мүмкіндігін	-4840
▁саты	-4841
оза	-4842
▁металл	-4843
▁ылғал	-4844
▁Сей	-4845
▁тарату	-4846
▁техник	-4847
ісінше	-4848
▁Ко	-4849
или	-4850
▁Сайт	-4851
▁қамти	-4852
".	-4853
ind	-4854
▁менедж	-4855
▁ескі	-4856
▁болуына	-4857
ттің	-4858
▁Фил	-4859
▁қосымш	-4860
іктер	-4861
қақ	-4862
▁халықты	-4863
AR	-4864
▁бөлінген	-4865
елеп	-4866
▁Әрбір	-4867
▁ыр	-4868
імде	-4869
▁мейір	-4870
▁Басқар	-4871
▁k	-4872
▁компон	-4873
▁қызығушылық	-4874
▁Франция	-4875
кан	-4876
таң	-4877
▁)	-4878
атта	-4879
эн	-4880
▁өсіру	-4881
▁жақсарту	-4882
▁алынды	-4883
▁тілді	-4884
ван	-4885
▁бөлшек	-4886
лармен	-4887
▁БҰ	-4888
жаз	-4889
▁басына	-4890
іспен	-4891
▁ыңғайлы	-4892
▁асты	-4893
▁тізімі	-4894
▁айтуға	-4895
▁әдістемелік	-4896
▁мысал	-4897
паған	-4898
▁физикалық	-4899
▁шектеулі	-4900
▁Дам	-4901
▁энергия	-4902
сал	-4903
муналдық	-4904
▁бүгінде	-4905
▁жылына	-4906
ab	-4907
▁мәселені	-4908
▁клин	-4909
▁айының	-4910
▁дайындал	-4911
▁кеңейту	-4912
▁жағы	-4913
▁кездегі	-4914
лығының	-4915
▁жары	-4916
▁жаппай	-4917
▁(«	-4918
▁таныт	-4919
▁Қылм	-4920
▁үйге	-4921
▁Не	-4922
▁of	-4923
▁Ән	-4924
▁көру	-4925
▁үйрет	-4926
▁Мақсаты	-4927
абын	-4928
▁миллиард	-4929
▁транс	-4930
▁шөп	-4931
▁ыды	-4932
етінін	-4933
▁ға	-4934
▁үстінде	-4935
▁толығымен	-4936
mail	-4937
▁тілінің	-4938
цеп	-4939
▁тұрғыны	-4940
▁айналып	-4941
атады	-4942
▁осылай	-4943
▁хабарлас	-4944
▁әуе	-4945
ағай	-4946
▁әрқашан	-4947
▁сұлу	-4948
▁бағалы	-4949
ый	-4950
▁мойында	-4951
▁программ	-4952
▁Иран	-4953
▁гу	-4954
руг	-4955
▁сұйық	-4956
▁Республикалық	-4957
▁ретте	-4958
мб	-4959
▁Дін	-4960
▁жету	-4961
▁амал	-4962
▁әділ	-4963
▁анықталады	-4964
ва	-4965
▁нәтиже	-4966
ейін	-4967
▁кеңесінің	-4968
▁мекемелер	-4969
▁индустр	-4970
Мә	-4971
▁қабылданған	-4972
▁Кітап	-4973
▁қаншалықты	-4974
ио	-4975
▁баланы	-4976
▁талаптар	-4977
▁болғанда	-4978
ану	-4979
тіз	-4980
ения	-4981
▁n	-4982
▁тірі	-4983
▁Әдеби	-4984
▁тұңғыш	-4985
▁жетеді	-4986
альды	-4987
ырау	-4988
▁барған	-4989
▁Қырғызстан	-4990
▁Бауыр	-4991
▁қарсыл	-4992
▁әке	-4993
▁для	-4994
▁толы	-4995
▁нан	-4996
▁магистр	-4997
▁есте	-4998
):	-4999
▁Интернет	-5000
жымайтын	-5001
▁бағын	-5002
▁мақтан	-5003
араби	-5004
▁көрініс	-5005
алардан	-5006
ресс	-5007
▁қабілетті	-5008
▁бермейді	-5009
▁құқықтары	-5010
пеу	-5011
▁модель	-5012
▁мамандық	-5013
▁бәсек	-5014
амай	-5015
▁инжен	-5016
лықты	-5017
▁ағымдағы	-5018
▁тері	-5019
▁қаражат	-5020
галтерлік	-5021
таңыз	-5022
тінде	-5023
▁Шет	-5024
▁ешқашан	-5025
▁Мер	-5026
құр	-5027
ғол	-5028
▁Құл	-5029
▁Жолдау	-5030
▁балаға	-5031
▁жанындағы	-5032
▁Сурет	-5033
▁св	-5034
▁тазар	-5035
▁Парламент	-5036
▁мұз	-5037
▁көше	-5038
▁Және	-5039
▁орындары	-5040
аттарды	-5041
▁бастауыш	-5042
ЫС	-5043
▁ескере	-5044
▁қамтиды	-5045
▁блог	-5046
▁монитор	-5047
▁тағайында	-5048
▁бірде	-5049
▁салды	-5050
▁міндеті	-5051
▁под	-5052
▁гек	-5053
▁i	-5054
▁шың	-5055
мед	-5056
▁қолдана	-5057
ская	-5058
ғали	-5059
▁бағыты	-5060
▁жеңілде	-5061
▁құзыр	-5062
▁екеу	-5063
▁Тәуелсіз	-5064
▁түрін	-5065
генде	-5066
▁агенттігі	-5067
▁талай	-5068
▁мын	-5069
▁Қазақстанға	-5070
инация	-5071
иядағы	-5072
▁жасайтын	-5073
▁хатшысы	-5074
так	-5075
ыстардың	-5076
улет	-5077
▁пайдалана	-5078
▁шұғыл	-5079
изне	-5080
▁тұрғыс	-5081
▁батыс	-5082
▁музыка	-5083
кест	-5084
▁сән	-5085
▁аумақ	-5086
▁>	-5087
▁баспан	-5088
▁Y	-5089
▁турнир	-5090
▁масс	-5091
▁ертең	-5092
уан	-5093
амин	-5094
▁өмірге	-5095
▁кг	-5096
қаны	-5097
имия	-5098
▁инновациялық	-5099
дейтін	-5100
▁кабин	-5101
▁сары	-5102
▁қатысуымен	-5103
▁жатқыз	-5104
▁шикіз	-5105
ҰЛ	-5106
аққа	-5107
▁белгісіз	-5108
пұл	-5109
▁жағдайды	-5110
▁анти	-5111
▁парақш	-5112
шыларының	-5113
▁жасалады	-5114
▁атқарады	-5115
▁көлемінде	-5116
▁қия	-5117
▁Пікір	-5118
▁әрекеттер	-5119
▁каз	-5120
▁саяхат	-5121
▁тәулік	-5122
тымды	-5123
Өз	-5124
▁Еураз	-5125
▁автоб	-5126
ғұрлым	-5127
▁Мақал	-5128
▁Министр	-5129
▁рәсім	-5130
▁аспап	-5131
▁қорғал	-5132
▁ғалымдар	-5133
▁түлек	-5134
▁кешенді	-5135
түсті	-5136
стемелік	-5137
ую	-5138
▁басшылық	-5139
▁адамгершілік	-5140
▁көрермен	-5141
▁сөн	-5142
шет	-5143
▁бойында	-5144
дайым	-5145
▁санын	-5146
стаз	-5147
▁порталы	-5148
инам	-5149
діктер	-5150
▁ұйымдар	-5151
▁жолмен	-5152
▁Ғылыми	-5153
▁үлгер	-5154
шыларға	-5155
стүр	-5156
▁екін	-5157
▁беруді	-5158
кіші	-5159
▁жұмысты	-5160
▁ештең	-5161
▁Экономикалық	-5162
▁шаруашыл	-5163
▁адамдарды	-5164
▁мектептің	-5165
▁жүгін	-5166
inews	-5167
▁кезіндегі	-5168
▁Ресейдің	-5169
онды	-5170
▁шәкір	-5171
ТАР	-5172
▁Тәрбие	-5173
Алтын	-5174
ңгілік	-5175
▁Сөйтіп	-5176
▁департаментінің	-5177
aq	-5178
▁алыс	-5179
▁шаралары	-5180
▁Гол	-5181
▁достар	-5182
нұс	-5183
▁құрылды	-5184
▁жылдарға	-5185
▁қабілетін	-5186
▁ойлап	-5187
▁ауылы	-5188
▁кә	-5189
ектің	-5190
оның	-5191
гілік	-5192
АҢ	-5193
бұр	-5194
▁әдебиеттер	-5195
▁Үлкен	-5196
▁суреттер	-5197
▁жобалар	-5198
сіне	-5199
тә	-5200
▁жағалау	-5201
▁эст	-5202
▁қимыл	-5203
▁Мак	-5204
КО	-5205
▁ынтал	-5206
▁арада	-5207
▁Құрметті	-5208
▁Педагог	-5209
▁ұсыныс	-5210
▁ҚАЗ	-5211
атура	-5212
иологиялық	-5213
ap	-5214
▁қасиеттер	-5215
▁болатынын	-5216
Назарбаев	-5217
▁кеңістік	-5218
данған	-5219
▁төтенше	-5220
иды	-5221
▁делінген	-5222
▁даң	-5223
▁Тараз	-5224
қықтық	-5225
▁автомобиль	-5226
▁ақыр	-5227
▁Таң	-5228
▁өскен	-5229
▁Премьер	-5230
ЫМ	-5231
▁сөйлес	-5232
▁ұзындығы	-5233
▁ғарыш	-5234
▁бағытта	-5235
топ	-5236
▁сам	-5237
ицен	-5238
ымда	-5239
▁бақыл	-5240
▁қабылдады	-5241
▁тоқтат	-5242
▁Бағдарлам	-5243
лад	-5244
▁Псих	-5245
▁апар	-5246
▁анықталған	-5247
енді	-5248
▁Көз	-5249
ханов	-5250
▁басшылары	-5251
дермен	-5252
▁Президентінің	-5253
▁таба	-5254
▁жор	-5255
▁ұлғай	-5256
▁шару	-5257
ықтар	-5258
▁ІІІ	-5259
▁пайызы	-5260
қо	-5261
▁микро	-5262
Ер	-5263
▁Салық	-5264
▁күнді	-5265
▁көтеру	-5266
▁мұқият	-5267
▁беруші	-5268
▁бүл	-5269
▁ерекшелен	-5270
▁күтіп	-5271
жа	-5272
▁қызы	-5273
▁тану	-5274
▁мем	-5275
▁жүретін	-5276
▁Әсіресе	-5277
▁файл	-5278
▁Университ	-5279
сең	-5280
▁міндеттері	-5281
▁болмауы	-5282
иева	-5283
гіп	-5284
асп	-5285
ғында	-5286
▁аспан	-5287
▁қойылатын	-5288
баевтың	-5289
ейн	-5290
дастар	-5291
▁агр	-5292
▁амер	-5293
▁астында	-5294
▁жетіс	-5295
▁Бұрын	-5296
▁пайдаланып	-5297
ице	-5298
▁Тақырыбы	-5299
▁телеарн	-5300
▁жолында	-5301
▁қолжет	-5302
▁құрастыр	-5303
маны	-5304
▁сирек	-5305
▁отырмыз	-5306
▁Спорт	-5307
тез	-5308
▁университет	-5309
анып	-5310
▁жетекші	-5311
▁Дан	-5312
▁өсімдіктер	-5313
▁қорғ	-5314
▁түркі	-5315
▁ағын	-5316
▁Пән	-5317
сел	-5318
▁жағдайға	-5319
үкт	-5320
▁өнімдерін	-5321
▁көрсетіледі	-5322
едом	-5323
▁теңгені	-5324
▁құралдар	-5325
▁асып	-5326
▁сынды	-5327
▁сағ	-5328
▁катег	-5329
▁солай	-5330
▁Америка	-5331
▁пл	-5332
▁сонда	-5333
▁психология	-5334
▁елеу	-5335
тауыш	-5336
▁неше	-5337
▁енгізілген	-5338
▁уақытқа	-5339
▁бағдарламалар	-5340
▁Бақ	-5341
▁том	-5342
▁Есеп	-5343
▁план	-5344
▁организм	-5345
▁жолдарын	-5346
VI	-5347
тінші	-5348
форматика	-5349
▁кеңестер	-5350
дықтың	-5351
▁істеген	-5352
▁бірыңғай	-5353
▁жасуш	-5354
сымен	-5355
▁нәрсен	-5356
▁жартылай	-5357
немесе	-5358
▁қаты	-5359
діктен	-5360
▁қызығу	-5361
емлекеттік	-5362
құм	-5363
▁ете	-5364
▁дегенді	-5365
▁мәслихат	-5366
▁заттарды	-5367
▁қарқынды	-5368
сая	-5369
өрі	-5370
▁меди	-5371
▁көшбас	-5372
▁веб	-5373
ықша	-5374
▁асыруға	-5375
▁мектебінің	-5376
зин	-5377
▁бағдарламасын	-5378
тылып	-5379
▁қаланың	-5380
ыстарды	-5381
дерімен	-5382
▁табысты	-5383
▁Tengrinews	-5384
▁қонақтар	-5385
▁әсерін	-5386
қазақ	-5387
▁қалау	-5388
▁сахн	-5389
етика	-5390
▁дамуының	-5391
▁деңгейдегі	-5392
▁қояды	-5393
▁Баян	-5394
▁Қоғамдық	-5395
▁мақала	-5396
▁сақтауға	-5397
мады	-5398
.:	-5399
▁өсу	-5400
▁алыңыз	-5401
▁эп	-5402
фир	-5403
▁үйлес	-5404
ование	-5405
▁бірлесіп	-5406
ow	-5407
▁орналастыру	-5408
▁Медиц	-5409
▁жұмысының	-5410
▁атынан	-5411
▁сөзін	-5412
▁орынға	-5413
▁Жапон	-5414
▁қасиеттері	-5415
▁толықтыру	-5416
▁соңына	-5417
▁но	-5418
▁мағ	-5419
▁суық	-5420
▁Кол	-5421
▁мор	-5422
най	-5423
▁туы	-5424
иссер	-5425
▁ауз	-5426
▁аху	-5427
асс	-5428
▁Экономика	-5429
▁Осыдан	-5430
есінен	-5431
берген	-5432
▁мәдениеті	-5433
▁аралық	-5434
▁за	-5435
▁суға	-5436
▁техника	-5437
▁кәсіптік	-5438
▁қош	-5439
▁сөздерді	-5440
................	-5441
▁ұзын	-5442
▁кешір	-5443
▁таным	-5444
ісу	-5445
▁тақырыбында	-5446
▁Тап	-5447
▁бәсекел	-5448
▁музей	-5449
дролық	-5450
▁болдыр	-5451
▁мам	-5452
▁қасиетті	-5453
▁параметр	-5454
▁журналист	-5455
▁жүгір	-5456
алас	-5457
▁патри	-5458
деуі	-5459
ғарғы	-5460
АҒ	-5461
▁әрине	-5462
▁Назарбаевтың	-5463
▁ақпараттар	-5464
▁істей	-5465
▁математ	-5466
иттер	-5467
▁Көл	-5468
▁Алек	-5469
▁сөзді	-5470
▁есті	-5471
▁алдындағы	-5472
аттау	-5473
елес	-5474
▁жасөспірімдер	-5475
▁сегіз	-5476
▁көтеріп	-5477
дерден	-5478
▁мүлдем	-5479
мыс	-5480
▁мектепте	-5481
▁қант	-5482
▁фестив	-5483
▁БҰҰ	-5484
тасын	-5485
▁ортасында	-5486
▁қадір	-5487
ухани	-5488
▁демократ	-5489
ort	-5490
▁Ди	-5491
▁нағыз	-5492
ня	-5493
▁таныстыру	-5494
▁Қызмет	-5495
Ор	-5496
онд	-5497
▁Саб	-5498
▁сүру	-5499
▁тобының	-5500
▁әб	-5501
▁редакция	-5502
▁сәтті	-5503
▁перс	-5504
▁Бө	-5505
▁аудару	-5506
▁Газ	-5507
▁бойына	-5508
▁жастардың	-5509
асың	-5510
▁асқан	-5511
▁ұпай	-5512
▁сеп	-5513
лик	-5514
▁диал	-5515
▁коммерциялық	-5516
▁қызметкері	-5517
▁одақ	-5518
▁Пер	-5519
▁практ	-5520
тин	-5521
шасы	-5522
▁Иә	-5523
атыны	-5524
▁саң	-5525
▁ауылында	-5526
▁оқушылары	-5527
▁аңыз	-5528
шам	-5529
▁бірлескен	-5530
▁экспорт	-5531
▁кездесетін	-5532
▁Об	-5533
шілігін	-5534
▁өнері	-5535
фон	-5536
▁жерлерде	-5537
ланың	-5538
▁түзету	-5539
▁w	-5540
▁Ашық	-5541
▁гид	-5542
▁Қазан	-5543
▁бизне	-5544
ирург	-5545
▁Сам	-5546
терінде	-5547
▁білімдерін	-5548
▁жұп	-5549
▁қытай	-5550
▁казахском	-5551
▁анал	-5552
удан	-5553
▁округ	-5554
▁әрқайс	-5555
ение	-5556
▁Әйел	-5557
▁жұмырт	-5558
▁ұсынды	-5559
▁қатысады	-5560
▁тұлғаның	-5561
▁қайтадан	-5562
▁болжам	-5563
ости	-5564
есек	-5565
тім	-5566
▁мм	-5567
▁республика	-5568
▁бұлшық	-5569
▁органдары	-5570
▁комитеті	-5571
Халық	-5572
▁ерік	-5573
▁мөлшерде	-5574
әді	-5575
▁заттардың	-5576
▁жалға	-5577
▁ауқымды	-5578
ияз	-5579
▁заңдылық	-5580
қасы	-5581
▁вирус	-5582
▁ислам	-5583
таты	-5584
av	-5585
▁Сұлтан	-5586
▁құжаттарды	-5587
▁автокөлік	-5588
▁жылдығына	-5589
▁мезгіл	-5590
▁шір	-5591
▁тұм	-5592
▁халқына	-5593
▁қорғаныс	-5594
▁ұстаным	-5595
▁ресей	-5596
▁қондыр	-5597
▁Сыртқы	-5598
дест	-5599
ха	-5600
қайда	-5601
▁еңбегі	-5602
▁департаменті	-5603
▁тұлғалардың	-5604
▁елдердің	-5605
▁концерт	-5606
▁келеш	-5607
аналар	-5608
▁дөңгелек	-5609
▁дақыл	-5610
ович	-5611
▁нүкт	-5612
▁Дәл	-5613
▁Жақсы	-5614
▁қатер	-5615
▁анықтам	-5616
атал	-5617
▁жасар	-5618
▁күшей	-5619
▁аяқталған	-5620
▁Қайрат	-5621
▁жекпе	-5622
▁Ана	-5623
▁түсіну	-5624
біз	-5625
параты	-5626
▁кино	-5627
Бол	-5628
оц	-5629
итар	-5630
жаб	-5631
ектен	-5632
▁ХХ	-5633
аймыз	-5634
▁тәжірибесі	-5635
сор	-5636
ауын	-5637
▁қабылдаған	-5638
▁көпшілігі	-5639
▁байланыстыр	-5640
рак	-5641
▁кредит	-5642
▁бостан	-5643
▁Қандай	-5644
▁көрсетуге	-5645
▁Сары	-5646
▁лай	-5647
ыла	-5648
▁мамандығы	-5649
атель	-5650
▁нәтижелері	-5651
▁тапсырмалар	-5652
▁жұмысына	-5653
▁құрғақ	-5654
шара	-5655
▁the	-5656
▁Al	-5657
▁учаск	-5658
▁тоқсан	-5659
▁оқыған	-5660
▁жазушы	-5661
лардан	-5662
▁спорттық	-5663
▁анықтайды	-5664
здік	-5665
жайы	-5666
ета	-5667
▁АЛ	-5668
▁ықтим	-5669
▁Хал	-5670
▁фир	-5671
таев	-5672
▁жерді	-5673
ики	-5674
дандырылған	-5675
▁кіріп	-5676
▁ағай	-5677
▁Арн	-5678
Құ	-5679
UR	-5680
▁кеу	-5681
▁жарияланды	-5682
▁студент	-5683
▁өткізіп	-5684
▁төмендегі	-5685
one	-5686
ТА	-5687
▁көне	-5688
▁бұдан	-5689
ағының	-5690
дігінен	-5691
▁кеден	-5692
▁карантин	-5693
▁қоймай	-5694
▁қадағалау	-5695
▁болмақ	-5696
▁Елбасының	-5697
самблея	-5698
▁атал	-5699
ty	-5700
▁кезегінде	-5701
▁шеккен	-5702
▁барысы	-5703
▁көруге	-5704
▁үйлест	-5705
ейтой	-5706
▁алмайтын	-5707
овна	-5708
▁арзан	-5709
скемен	-5710
▁өсуі	-5711
әсіл	-5712
▁ісін	-5713
▁айыппұл	-5714
▁тоз	-5715
▁Мұның	-5716
▁болашағы	-5717
▁ниет	-5718
шаруа	-5719
▁практикалық	-5720
▁диагност	-5721
▁анасы	-5722
▁жүргізуші	-5723
▁Кір	-5724
▁ғылымдарының	-5725
имн	-5726
▁ірг	-5727
▁Студен	-5728
Фараби	-5729
сінде	-5730
шығ	-5731
▁түсетін	-5732
▁сумен	-5733
▁стратегиялық	-5734
▁сотқа	-5735
қатын	-5736
ысу	-5737
иядан	-5738
▁танымдық	-5739
▁сүйікті	-5740
▁дек	-5741
▁Петр	-5742
▁әліп	-5743
▁ғалам	-5744
▁сел	-5745
ek	-5746
▁кепілдік	-5747
▁Конституция	-5748
▁жарқын	-5749
▁толған	-5750
▁қарастырылған	-5751
омб	-5752
цикл	-5753
▁дана	-5754
ғу	-5755
▁емдел	-5756
қой	-5757
▁так	-5758
▁Тоқ	-5759
▁әрдайым	-5760
▁ли	-5761
▁компаниясының	-5762
пат	-5763
қаралық	-5764
тығын	-5765
▁органдар	-5766
▁ұсақ	-5767
ноз	-5768
▁ескерту	-5769
▁шаршы	-5770
ымызда	-5771
бекова	-5772
▁тәуелсіздік	-5773
▁салмағы	-5774
▁берудің	-5775
▁рек	-5776
▁құпия	-5777
▁Қала	-5778
edia	-5779
▁алуы	-5780
▁жобасын	-5781
тейтін	-5782
▁алмаған	-5783
▁Мыс	-5784
▁ұсынылады	-5785
▁жолға	-5786
кең	-5787
ілдір	-5788
▁қыздар	-5789
қыны	-5790
▁Сақ	-5791
ттері	-5792
▁процесі	-5793
▁істері	-5794
▁институты	-5795
▁едік	-5796
тамыз	-5797
▁тағайындалды	-5798
▁Мах	-5799
▁меңгерушісі	-5800
▁авторы	-5801
▁әкеледі	-5802
▁қиындық	-5803
▁жиналған	-5804
▁ойлаймын	-5805
▁мұны	-5806
▁Мей	-5807
▁көреді	-5808
адағы	-5809
▁Нов	-5810
▁әнші	-5811
▁жаһ	-5812
▁міндеттем	-5813
ақтығы	-5814
▁бастығы	-5815
▁дамытудың	-5816
▁II	-5817
гізуші	-5818
ИН	-5819
▁Материал	-5820
енд	-5821
▁өседі	-5822
▁Облыс	-5823
шін	-5824
со	-5825
▁рейт	-5826
▁математика	-5827
тізб	-5828
▁еур	-5829
▁тұрғысынан	-5830
▁жалақ	-5831
көл	-5832
▁отын	-5833
некті	-5834
▁жетіп	-5835
▁теңгеден	-5836
итель	-5837
Құр	-5838
▁Жоғарғы	-5839
▁орталығында	-5840
▁өнімнің	-5841
▁дағдар	-5842
▁тұрғындар	-5843
▁жиынтығы	-5844
▁Из	-5845
▁кезекті	-5846
▁ұсынған	-5847
▁тақта	-5848
▁керектігін	-5849
▁Мон	-5850
▁Қосымша	-5851
активті	-5852
▁ерітінді	-5853
▁жоспарланған	-5854
талық	-5855
пидем	-5856
▁Демек	-5857
▁сәби	-5858
сындағы	-5859
▁табылған	-5860
емді	-5861
дағының	-5862
стардың	-5863
▁шығыс	-5864
▁мәселесін	-5865
эр	-5866
оттық	-5867
▁жасалды	-5868
іңе	-5869
▁Стр	-5870
▁білімі	-5871
ач	-5872
▁азайту	-5873
ИТ	-5874
▁портал	-5875
шыға	-5876
▁Аль	-5877
балы	-5878
▁даярлау	-5879
▁ад	-5880
▁Асқар	-5881
сынан	-5882
▁ежелгі	-5883
▁Тағ	-5884
▁Маман	-5885
▁рев	-5886
▁махаббат	-5887
▁Үнді	-5888
▁ауыстыру	-5889
▁Қазақтың	-5890
екелеген	-5891
▁нормативтік	-5892
▁шығарды	-5893
ob	-5894
ами	-5895
▁сәлем	-5896
азан	-5897
▁Мұхтар	-5898
▁Қон	-5899
▁қаралды	-5900
ele	-5901
ырма	-5902
▁уәкіл	-5903
▁жік	-5904
сим	-5905
ағаты	-5906
▁Олимпиада	-5907
▁музыкалық	-5908
▁Тор	-5909
▁импер	-5910
метр	-5911
▁Ғалым	-5912
▁матер	-5913
▁мыңға	-5914
▁келу	-5915
▁бир	-5916
▁елі	-5917
зерттеу	-5918
▁ойындар	-5919
дәрмек	-5920
▁инсп	-5921
лия	-5922
eg	-5923
пайтын	-5924
іктігі	-5925
▁сипаттам	-5926
мосфер	-5927
әрім	-5928
▁Федер	-5929
опол	-5930
▁Қорытынды	-5931
▁Алексан	-5932
▁тоқта	-5933
қара	-5934
▁мыр	-5935
▁шешуге	-5936
▁Атап	-5937
рес	-5938
▁дербес	-5939
▁география	-5940
▁аймақтық	-5941
▁бағдарламасының	-5942
▁аяқтал	-5943
▁тоқт	-5944
▁үйлер	-5945
▁ҚАЗАҚ	-5946
▁келін	-5947
▁атанды	-5948
▁айқында	-5949
▁бастысы	-5950
алығын	-5951
▁артықшылық	-5952
вр	-5953
▁шығарған	-5954
ному	-5955
▁жұмсақ	-5956
далады	-5957
▁бағал	-5958
БТ	-5959
бағ	-5960
▁тілек	-5961
▁Тел	-5962
дәстүр	-5963
АБ	-5964
▁түрік	-5965
▁психолог	-5966
▁күннің	-5967
ebook	-5968
▁қамқор	-5969
▁өзім	-5970
▁жүргізілген	-5971
▁картасы	-5972
гро	-5973
▁Тан	-5974
▁жағында	-5975
▁іздеп	-5976
иктер	-5977
▁Мұны	-5978
ындайтын	-5979
▁тастап	-5980
▁елеулі	-5981
▁өнерк	-5982
▁кезекте	-5983
▁https	-5984
▁бірегей	-5985
амыздың	-5986
пейтін	-5987
▁өзгеріс	-5988
▁жариялады	-5989
▁анықтауға	-5990
▁жүйесіне	-5991
ылмалы	-5992
...]	-5993
▁білмей	-5994
▁Комп	-5995
▁Казахстан	-5996
▁әбден	-5997
аттандыру	-5998
▁шыға	-5999
ers	-6000
ІҢ	-6001
▁зертхан	-6002
▁тілде	-6003
▁шарты	-6004
▁партиясы	-6005
адыр	-6006
ұмыр	-6007
зер	-6008
▁салады	-6009
мағын	-6010
▁Тұрғын	-6011
ӘН	-6012
▁қолжетімді	-6013
▁иммун	-6014
▁қоңырау	-6015
▁білікті	-6016
сте	-6017
ТАН	-6018
▁жеткілік	-6019
▁грам	-6020
,-	-6021
▁сәл	-6022
▁жүру	-6023
▁органдарының	-6024
шаға	-6025
▁айн	-6026
етінен	-6027
art	-6028
▁қараңыз	-6029
▁КСРО	-6030
▁шер	-6031
▁зиянды	-6032
бөл	-6033
▁қайраткері	-6034
▁жоғарыда	-6035
▁мазмұнын	-6036
acebook	-6037
Ел	-6038
▁ед	-6039
▁ашылған	-6040
▁жұр	-6041
ДАР	-6042
жек	-6043
▁жаңадан	-6044
британ	-6045
▁Ақтау	-6046
▁көзделген	-6047
▁бақытты	-6048
▁Жауап	-6049
шектер	-6050
▁сұрады	-6051
▁Нәтижесінде	-6052
▁сат	-6053
цуз	-6054
тілі	-6055
▁құрастыру	-6056
▁бәсекеге	-6057
▁мерейтой	-6058
пелі	-6059
тарында	-6060
▁ештеңе	-6061
етеринар	-6062
▁тыңдау	-6063
▁сөзсіз	-6064
▁көкөн	-6065
▁шығарады	-6066
▁елінің	-6067
▁көрді	-6068
сыздық	-6069
абына	-6070
▁Тұңғыш	-6071
▁[...]	-6072
▁кемшілік	-6073
▁клиенттер	-6074
етк	-6075
▁латын	-6076
тардан	-6077
▁қабілеті	-6078
дырды	-6079
▁көлемін	-6080
імдерін	-6081
▁отырысында	-6082
▁соған	-6083
бетов	-6084
▁Орын	-6085
▁бітірген	-6086
▁облыстар	-6087
▁салынады	-6088
іккен	-6089
птом	-6090
ліктің	-6091
▁медаль	-6092
▁жинап	-6093
▁Көш	-6094
▁келмейді	-6095
вет	-6096
діл	-6097
▁тиімділігін	-6098
▁оқытудың	-6099
▁микр	-6100
▁технологиясы	-6101
амал	-6102
▁санитарлық	-6103
▁кал	-6104
Менің	-6105
▁мәселелерін	-6106
▁туристік	-6107
▁бедел	-6108
▁интел	-6109
▁Абайдың	-6110
уының	-6111
▁нараз	-6112
иясында	-6113
▁биылғы	-6114
▁жеңіп	-6115
ақтың	-6116
▁араб	-6117
иров	-6118
▁қажеті	-6119
иан	-6120
гім	-6121
▁рег	-6122
▁пров	-6123
ылмаған	-6124
пеген	-6125
бірімен	-6126
▁жүргізіп	-6127
▁ерк	-6128
▁әж	-6129
▁көпір	-6130
▁бри	-6131
▁лицен	-6132
▁алуан	-6133
▁акцион	-6134
▁Оқыту	-6135
▁жануарлар	-6136
одақ	-6137
▁Өс	-6138
▁оқушыларға	-6139
▁орталықтар	-6140
sta	-6141
ІЗ	-6142
▁инвестор	-6143
дасының	-6144
▁Sp	-6145
▁реакция	-6146
бин	-6147
ілмеген	-6148
▁құрылғылар	-6149
ланады	-6150
▁Шың	-6151
жайып	-6152
▁өнеркәсі	-6153
ТТ	-6154
▁Корея	-6155
иж	-6156
оспар	-6157
▁өлшеу	-6158
әк	-6159
терден	-6160
ымдар	-6161
▁радио	-6162
AQ	-6163
▁берік	-6164
ЕТТ	-6165
▁жеңіске	-6166
сатын	-6167
▁Жергілікті	-6168
▁арыз	-6169
дету	-6170
up	-6171
іріп	-6172
▁сұрап	-6173
▁бүр	-6174
▁чемпионы	-6175
▁сандық	-6176
▁азаматы	-6177
▁қарасты	-6178
ord	-6179
ттердің	-6180
▁Украина	-6181
▁жұмыстарды	-6182
▁паци	-6183
қаш	-6184
ертең	-6185
▁Ап	-6186
▁терап	-6187
ылмайды	-6188
▁Тас	-6189
▁Аур	-6190
һар	-6191
▁пун	-6192
вол	-6193
Ең	-6194
▁газет	-6195
▁жердің	-6196
▁тиес	-6197
▁демал	-6198
▁орайда	-6199
▁ресейлік	-6200
екс	-6201
▁Тақырып	-6202
▁тарихын	-6203
▁айлық	-6204
▁Тір	-6205
дет	-6206
▁дала	-6207
ляция	-6208
▁ұйымдардың	-6209
▁қатарында	-6210
▁резерв	-6211
▁формул	-6212
▁шынықтыру	-6213
▁бат	-6214
▁алуды	-6215
▁слайд	-6216
▁рөлі	-6217
▁Қылмыстық	-6218
Со	-6219
▁көшірм	-6220
мақты	-6221
▁бөлініп	-6222
▁коммуналдық	-6223
▁шоғыр	-6224
▁түгел	-6225
Бас	-6226
ку	-6227
▁Аллаһ	-6228
▁әкесі	-6229
▁дамы	-6230
дж	-6231
▁қауіпсіздігі	-6232
▁тұру	-6233
Қай	-6234
▁оңтай	-6235
▁жарыс	-6236
▁артып	-6237
бор	-6238
▁Курс	-6239
Ұл	-6240
шыларды	-6241
▁оператор	-6242
▁доп	-6243
иян	-6244
▁жанр	-6245
▁кездесті	-6246
▁төн	-6247
шілігінің	-6248
▁таңдап	-6249
▁бізді	-6250
▁Өскемен	-6251
▁кітапхана	-6252
▁маусымда	-6253
пес	-6254
▁фран	-6255
▁вице	-6256
▁тіліндегі	-6257
қос	-6258
▁көре	-6259
▁тін	-6260
▁қабын	-6261
▁l	-6262
▁органдардың	-6263
▁Кан	-6264
газ	-6265
▁полицей	-6266
анкі	-6267
иш	-6268
▁Еш	-6269
▁есірт	-6270
▁Реф	-6271
▁нығайту	-6272
иен	-6273
▁оқушының	-6274
озит	-6275
кул	-6276
▁аяқталды	-6277
баған	-6278
▁қайырымдылық	-6279
▁Түркия	-6280
▁Рес	-6281
▁шег	-6282
▁тізб	-6283
▁Александр	-6284
▁өмірін	-6285
аймын	-6286
атау	-6287
шікті	-6288
▁коман	-6289
▁Мыр	-6290
▁Тай	-6291
▁атақты	-6292
ақтардың	-6293
▁өңірлік	-6294
▁Бес	-6295
▁күнтізб	-6296
▁Мол	-6297
еліктен	-6298
▁ұсынылған	-6299
орған	-6300
▁саласының	-6301
нар	-6302
▁бух	-6303
әуір	-6304
▁тоғыз	-6305
▁салуға	-6306
▁ведом	-6307
үш	-6308
▁Мәжіліс	-6309
ациясының	-6310
▁өкін	-6311
▁сипаттамасы	-6312
▁Қоршаған	-6313
▁келіссөз	-6314
▁мод	-6315
▁айналады	-6316
іле	-6317
иканы	-6318
▁толықтыр	-6319
▁әйгілі	-6320
ғап	-6321
▁процесс	-6322
жо	-6323
▁ќ	-6324
▁пред	-6325
▁салтанатты	-6326
▁заманғы	-6327
деше	-6328
коль	-6329
▁плас	-6330
▁қорының	-6331
▁қабылданды	-6332
▁намаз	-6333
▁Мал	-6334
▁көрсете	-6335
басын	-6336
▁осыған	-6337
yn	-6338
▁палат	-6339
бейді	-6340
▁шарап	-6341
▁тарал	-6342
став	-6343
▁қосылды	-6344
кери	-6345
▁қызметке	-6346
▁Ку	-6347
▁ұстаздар	-6348
▁жағымсыз	-6349
▁жеткіліксіз	-6350
▁әлдеқайда	-6351
▁мамандары	-6352
қыс	-6353
▁Ауған	-6354
гемен	-6355
▁тілінен	-6356
▁қарсаң	-6357
арды	-6358
▁Әбіл	-6359
екул	-6360
▁жүргізуге	-6361
Абай	-6362
▁құқығын	-6363
▁рай	-6364
▁екеуі	-6365
▁жекелеген	-6366
▁жасақ	-6367
▁шарттар	-6368
▁қамтылған	-6369
▁құралдарын	-6370
▁мәлімдем	-6371
го	-6372
▁табуға	-6373
▁табылды	-6374
No	-6375
▁түсіру	-6376
▁пәнінің	-6377
ител	-6378
▁Тәж	-6379
Тар	-6380
▁Үшінші	-6381
ығынан	-6382
▁талқылау	-6383
▁Компания	-6384
▁Төмен	-6385
▁Ем	-6386
▁минер	-6387
▁айырмашылық	-6388
отек	-6389
▁Қаң	-6390
▁бөлігінде	-6391
ғылы	-6392
▁дамып	-6393
▁станция	-6394
▁пошта	-6395
таймыз	-6396
▁кеңесі	-6397
▁жүргізіліп	-6398
▁Әзір	-6399
абр	-6400
▁атқарған	-6401
▁күту	-6402
▁тиесілі	-6403
до	-6404
терімен	-6405
▁бізде	-6406
▁сүйіспен	-6407
вен	-6408
▁аурулар	-6409
▁..	-6410
▁дүр	-6411
▁біліп	-6412
▁айда	-6413
▁Дар	-6414
▁қызметтің	-6415
▁Қолдан	-6416
генін	-6417
▁шығатын	-6418
▁айрықша	-6419
▁нәрсені	-6420
▁үйі	-6421
▁По	-6422
▁фер	-6423
сид	-6424
болат	-6425
▁енгізілді	-6426
▁шараларын	-6427
▁жасы	-6428
▁әкімдік	-6429
адам	-6430
▁Ұлыбритан	-6431
▁эмо	-6432
▁Үкіметінің	-6433
байды	-6434
▁уақытында	-6435
▁нарықтық	-6436
▁рол	-6437
▁мешіт	-6438
▁Мұғалім	-6439
▁керісінше	-6440
түр	-6441
ологиясы	-6442
▁Жү	-6443
▁жүргізілді	-6444
ғат	-6445
вар	-6446
▁субъектілер	-6447
▁істеуге	-6448
оурок	-6449
▁үздіксіз	-6450
бра	-6451
▁құрайтын	-6452
саяси	-6453
▁жаза	-6454
▁тұжырымдам	-6455
▁рецеп	-6456
ақтарды	-6457
жүр	-6458
▁препараттар	-6459
МУ	-6460
▁елдегі	-6461
▁До	-6462
▁Ұстаз	-6463
▁шолу	-6464
▁тарау	-6465
▁Тапсыр	-6466
▁суды	-6467
▁мерекелік	-6468
▁тартқан	-6469
▁енгізіледі	-6470
▁Облыстық	-6471
▁абыр	-6472
манитарлық	-6473
ҒА	-6474
шетау	-6475
қанда	-6476
▁жерінде	-6477
▁әуеж	-6478
айсыз	-6479
істері	-6480
▁Итал	-6481
▁балл	-6482
тқыш	-6483
ud	-6484
лерде	-6485
▁мәнінде	-6486
ыстыру	-6487
ine	-6488
▁жаңғырту	-6489
▁үйіне	-6490
овтің	-6491
▁көзге	-6492
▁журналистер	-6493
▁сауатты	-6494
▁басшылығы	-6495
былай	-6496
▁жасам	-6497
▁күміс	-6498
▁есік	-6499
егінің	-6500
▁тәсілі	-6501
▁Нұрлан	-6502
▁ұйымының	-6503
▁тастау	-6504
соқ	-6505
▁тауарлар	-6506
▁әкімдігі	-6507
▁Бауыржан	-6508
▁пәнінен	-6509
▁өмірде	-6510
өңдеу	-6511
▁дұ	-6512
асан	-6513
масын	-6514
імдерді	-6515
▁Хан	-6516
▁Влад	-6517
▁і	-6518
▁сөздің	-6519
▁пост	-6520
▁Рах	-6521
иетті	-6522
▁тұрды	-6523
▁лим	-6524
▁экран	-6525
лығымен	-6526
▁қыркүйекте	-6527
▁жеміс	-6528
▁плат	-6529
▁Скачать	-6530
▁Азаматтық	-6531
▁кіру	-6532
▁толқын	-6533
▁алдым	-6534
тихан	-6535
▁www	-6536
▁хабарлау	-6537
▁сұрау	-6538
▁др	-6539
▁сәтте	-6540
кез	-6541
▁топыр	-6542
ованың	-6543
▁Бр	-6544
Би	-6545
▁айға	-6546
▁білімін	-6547
аттарының	-6548
▁әлсіз	-6549
ектісі	-6550
▁майдан	-6551
▁тараған	-6552
▁құрметті	-6553
▁v	-6554
▁эм	-6555
▁қанағаттан	-6556
▁арттыруға	-6557
дасына	-6558
▁код	-6559
▁нұр	-6560
▁Алтай	-6561
▁Facebook	-6562
▁федер	-6563
▁ішінен	-6564
евр	-6565
▁CO	-6566
▁басыңыз	-6567
▁екендігі	-6568
▁террор	-6569
▁ядролық	-6570
▁алынады	-6571
ҒАН	-6572
▁докторы	-6573
▁аттан	-6574
▁кәм	-6575
▁Арал	-6576
▁ск	-6577
ласс	-6578
▁Ақын	-6579
▁сөздік	-6580
▁жағымды	-6581
▁десе	-6582
▁тайп	-6583
имир	-6584
▁сынақ	-6585
▁түк	-6586
▁жолда	-6587
▁суар	-6588
Тә	-6589
▁егін	-6590
жақ	-6591
▁шен	-6592
▁бактер	-6593
▁Мамыр	-6594
▁ұйымы	-6595
тасы	-6596
▁қызметтерді	-6597
▁сомасы	-6598
▁бетіне	-6599
▁Ген	-6600
▁тіліне	-6601
▁көрінісі	-6602
▁презентация	-6603
▁ақи	-6604
▁өмірдің	-6605
▁орал	-6606
▁орындауға	-6607
▁конс	-6608
▁береміз	-6609
▁Оларды	-6610
әрекет	-6611
azak	-6612
▁тамаш	-6613
Болашақ	-6614
изнес	-6615
▁неғұрлым	-6616
еленген	-6617
▁орындарының	-6618
▁дейтін	-6619
▁біршама	-6620
▁тату	-6621
дығынан	-6622
▁ондай	-6623
▁физика	-6624
▁әул	-6625
▁кейіпкер	-6626
▁рей	-6627
▁Батыр	-6628
▁түсу	-6629
▁үстем	-6630
керлердің	-6631
fo	-6632
опер	-6633
ского	-6634
▁құлақ	-6635
▁доз	-6636
БЖ	-6637
▁Сир	-6638
▁әлемде	-6639
ЫНЫҢ	-6640
iz	-6641
▁гөрі	-6642
▁камер	-6643
▁түпнұс	-6644
▁арнал	-6645
▁Дереккөз	-6646
▁енген	-6647
енинг	-6648
org	-6649
▁асырады	-6650
▁лақ	-6651
▁қойылды	-6652
бург	-6653
▁келтірілген	-6654
▁ауданындағы	-6655
▁айтар	-6656
▁машина	-6657
▁технологияларды	-6658
ЕВ	-6659
▁қарастыру	-6660
▁шығаруға	-6661
▁сақталған	-6662
▁қозғалыс	-6663
▁лайықты	-6664
▁ұсыну	-6665
▁алынып	-6666
▁қуат	-6667
▁судың	-6668
▁алмасу	-6669
▁сіңірген	-6670
▁маманы	-6671
▁Жастар	-6672
▁Құқық	-6673
▁қуатты	-6674
хем	-6675
утаты	-6676
▁прав	-6677
▁блок	-6678
▁шу	-6679
▁жобалау	-6680
▁Журнал	-6681
▁орнатыл	-6682
▁тұра	-6683
асып	-6684
▁қалдыру	-6685
ain	-6686
асқан	-6687
▁оя	-6688
тісі	-6689
▁етуі	-6690
адым	-6691
▁жарнам	-6692
▁егі	-6693
маның	-6694
▁базар	-6695
тықтың	-6696
▁анықтама	-6697
▁айырмашылығы	-6698
▁саған	-6699
▁көрнек	-6700
қазан	-6701
▁экономиканың	-6702
▁кеше	-6703
ылуына	-6704
▁сов	-6705
▁жақты	-6706
Жал	-6707
▁жүйесінде	-6708
▁институтының	-6709
▁Уақыт	-6710
▁осын	-6711
▁арту	-6712
▁ұмтыл	-6713
▁жатып	-6714
▁клиникалық	-6715
▁дағдыларын	-6716
▁бойындағы	-6717
ойын	-6718
малар	-6719
▁есебі	-6720
ино	-6721
жұм	-6722
▁сізді	-6723
▁мәнін	-6724
▁балам	-6725
▁жанар	-6726
ингі	-6727
лайтын	-6728
ономия	-6729
аспий	-6730
▁қараған	-6731
Жаңа	-6732
▁сипаты	-6733
▁әліпби	-6734
▁Арнайы	-6735
▁риза	-6736
▁түріне	-6737
хит	-6738
▁қарсаңында	-6739
▁мүшелерінің	-6740
ph	-6741
абек	-6742
▁сілтем	-6743
▁қарама	-6744
▁үйір	-6745
▁ғасырда	-6746
▁мүше	-6747
▁Сы	-6748
▁қабылдауға	-6749
▁Ман	-6750
▁ардагер	-6751
▁мәліметтерді	-6752
▁аурудың	-6753
▁қолданады	-6754
діг	-6755
ги	-6756
▁құруға	-6757
УР	-6758
▁депутаты	-6759
▁сұрақтарға	-6760
▁ойыны	-6761
AN	-6762
▁өтеу	-6763
▁қолданысқа	-6764
▁әдістерін	-6765
▁Абд	-6766
ойыз	-6767
рамма	-6768
▁басқарма	-6769
▁өсті	-6770
▁кететін	-6771
▁күйеу	-6772
▁мұқтаж	-6773
тықты	-6774
▁симптом	-6775
▁Ұйымдастыру	-6776
▁жинал	-6777
▁қозғалысы	-6778
▁нұсқа	-6779
вок	-6780
ылуда	-6781
▁Тарихи	-6782
▁партиясының	-6783
▁ынталандыру	-6784
▁болсаңыз	-6785
▁келі	-6786
▁аударма	-6787
▁кешені	-6788
▁нақ	-6789
▁шешімі	-6790
▁марапатталды	-6791
▁үйінде	-6792
▁қақп	-6793
▁мөлшерін	-6794
▁Желтоқсан	-6795
▁әріптестер	-6796
▁КӨ	-6797
▁Сұрақ	-6798
▁жүргізеді	-6799
▁біріне	-6800
▁әлемге	-6801
▁автоматты	-6802
▁шешімін	-6803
тест	-6804
▁толмаған	-6805
▁сиыр	-6806
▁Сізге	-6807
▁Шетел	-6808
▁үйлен	-6809
▁Жоба	-6810
▁нұсқасы	-6811
▁дыбыс	-6812
▁аль	-6813
▁диагноз	-6814
атынан	-6815
▁қож	-6816
▁оқылды	-6817
▁іріктеу	-6818
▁тариф	-6819
еймен	-6820
көр	-6821
ОН	-6822
▁күмән	-6823
антты	-6824
▁жоғарыл	-6825
▁анықтап	-6826
дья	-6827
кадем	-6828
әзік	-6829
▁етіледі	-6830
Қо	-6831
▁алайда	-6832
ихи	-6833
▁бөлімдер	-6834
▁Маусым	-6835
▁жете	-6836
▁інде	-6837
▁казак	-6838
таушы	-6839
▁оқиғалар	-6840
if	-6841
жел	-6842
▁пос	-6843
имиялық	-6844
Аз	-6845
уен	-6846
▁Сапар	-6847
тик	-6848
▁бөлме	-6849
▁етілген	-6850
инаның	-6851
тілікті	-6852
▁өткізуге	-6853
унд	-6854
▁араластыр	-6855
▁бұй	-6856
▁болуын	-6857
▁тілей	-6858
▁Туған	-6859
ици	-6860
▁теориясы	-6861
аттарын	-6862
Ан	-6863
сурет	-6864
▁химия	-6865
имен	-6866
▁әк	-6867
▁стиль	-6868
апты	-6869
▁Хабар	-6870
▁жаңарту	-6871
▁Ассамблея	-6872
▁Сүй	-6873
серв	-6874
▁ауруы	-6875
▁қатысушы	-6876
▁безен	-6877
▁әрекеті	-6878
▁жасырын	-6879
ағаш	-6880
бейтін	-6881
▁қатысы	-6882
▁диалог	-6883
▁асады	-6884
▁мекеме	-6885
th	-6886
▁тұрғыда	-6887
тіндеп	-6888
▁орнында	-6889
▁биологиялық	-6890
кесінің	-6891
▁Төтенше	-6892
сия	-6893
▁дарынды	-6894
▁Математика	-6895
▁курстық	-6896
беген	-6897
▁мұражай	-6898
▁оқшау	-6899
▁шақырды	-6900
▁ұйымдастырылған	-6901
▁бағдарламалық	-6902
▁іскерлік	-6903
▁бұқаралық	-6904
▁Қыс	-6905
▁Бор	-6906
▁беттер	-6907
▁рахмет	-6908
▁мереке	-6909
▁пайдаланады	-6910
ыққа	-6911
ектілері	-6912
арий	-6913
▁материалдарды	-6914
▁төзімді	-6915
кімен	-6916
▁Мұнай	-6917
▁жүйенің	-6918
▁сұраныс	-6919
▁ҰБТ	-6920
▁оқушыларды	-6921
▁кәсіпорындар	-6922
▁реп	-6923
▁жыныстық	-6924
▁жж	-6925
▁бұт	-6926
▁банктер	-6927
▁атом	-6928
▁жүйелер	-6929
ce	-6930
▁клим	-6931
▁ағам	-6932
▁балабақша	-6933
▁қағида	-6934
▁жақсылық	-6935
▁Өңір	-6936
тілген	-6937
▁компаниялар	-6938
▁оф	-6939
▁мг	-6940
▁білдіру	-6941
▁эфир	-6942
▁талаптарына	-6943
▁қабілеттерін	-6944
▁ерекшеліктерін	-6945
▁себептері	-6946
ствен	-6947
▁жасанды	-6948
▁шығындар	-6949
жылық	-6950
▁Инфоурок	-6951
▁белгілеу	-6952
ықтау	-6953
ве	-6954
мал	-6955
ҚК	-6956
▁қатысуға	-6957
▁генер	-6958
ене	-6959
▁күшейту	-6960
▁соны	-6961
уымен	-6962
▁қаласына	-6963
og	-6964
ранс	-6965
▁BAQ	-6966
▁цикл	-6967
▁тұн	-6968
▁тапсырды	-6969
▁төмендету	-6970
▁маркетинг	-6971
▁домбыр	-6972
▁көбейту	-6973
ТУ	-6974
▁төс	-6975
кө	-6976
▁финал	-6977
▁Афр	-6978
III	-6979
▁салыстырмалы	-6980
▁ЖӘН	-6981
астр	-6982
▁отырысы	-6983
▁бағалан	-6984
▁көрсеткіші	-6985
▁ТМД	-6986
ябр	-6987
▁Мағ	-6988
нев	-6989
▁мониторинг	-6990
ev	-6991
кур	-6992
%,	-6993
▁Жоб	-6994
құқықтық	-6995
▁Ораз	-6996
▁ур	-6997
▁Пайғамбар	-6998
▁құрбан	-6999
агер	-7000
уден	-7001
▁ұмы	-7002
▁Өндіріс	-7003
▁көшіп	-7004
▁қамқорлық	-7005
▁ойлан	-7006
▁таралған	-7007
▁Мүмкін	-7008
▁ауыт	-7009
▁келм	-7010
жылдық	-7011
▁Пайдалан	-7012
▁Мұрат	-7013
ЕЙ	-7014
▁білеміз	-7015
ритер	-7016
▁болмай	-7017
әдістемелік	-7018
ыңа	-7019
Министр	-7020
▁мағына	-7021
▁жетімді	-7022
▁Үндістан	-7023
кс	-7024
▁насихаттау	-7025
▁дизайн	-7026
▁күндіз	-7027
▁есімі	-7028
▁пайдасы	-7029
роф	-7030
▁ЖӘНЕ	-7031
▁карта	-7032
▁отырды	-7033
▁жүргізілуде	-7034
▁жаттық	-7035
▁бірлігі	-7036
олюция	-7037
▁түнде	-7038
лықтың	-7039
ланыс	-7040
▁мойын	-7041
▁фотос	-7042
қысы	-7043
▁Ескер	-7044
▁коммуника	-7045
▁түрлер	-7046
▁соғ	-7047
▁сабаққа	-7048
▁шығаратын	-7049
▁салынды	-7050
▁отбасылық	-7051
▁баса	-7052
шаның	-7053
атаев	-7054
▁Там	-7055
манов	-7056
▁арнаулы	-7057
▁жатты	-7058
▁толықтай	-7059
ымыр	-7060
▁объек	-7061
▁төрағасының	-7062
Адам	-7063
▁министрінің	-7064
▁бюджеттен	-7065
▁ғұмыр	-7066
Жұм	-7067
мағамбет	-7068
циклоп	-7069
▁дәрігерлер	-7070
▁Кейде	-7071
▁саз	-7072
тыз	-7073
уыз	-7074
▁шығарылған	-7075
старды	-7076
ымы	-7077
▁сесс	-7078
▁атқаратын	-7079
▁жіберген	-7080
▁функцион	-7081
▁Сынып	-7082
hat	-7083
▁Бастауыш	-7084
▁Им	-7085
рос	-7086
ию	-7087
▁му	-7088
Оқ	-7089
▁қысқаша	-7090
▁уәкілетті	-7091
▁бетінде	-7092
▁сорт	-7093
форма	-7094
екке	-7095
дерінен	-7096
▁жазбаша	-7097
gle	-7098
троп	-7099
▁Ник	-7100
!!!	-7101
жауап	-7102
▁жастан	-7103
▁озық	-7104
▁Бет	-7105
▁жылж	-7106
▁онымен	-7107
▁аудитор	-7108
▁есептеледі	-7109
▁Қой	-7110
қағ	-7111
▁ін	-7112
▁иман	-7113
▁жіберу	-7114
▁тартты	-7115
жат	-7116
▁аумағы	-7117
іңдер	-7118
▁туындаған	-7119
▁Дүниежүзілік	-7120
▁пак	-7121
атов	-7122
ской	-7123
▁оқушысы	-7124
▁ң	-7125
▁қателік	-7126
▁Кем	-7127
▁барлығын	-7128
ні	-7129
абай	-7130
ушыларға	-7131
▁Әуезов	-7132
оде	-7133
▁қорын	-7134
▁табады	-7135
▁кандида	-7136
лей	-7137
▁шеберлік	-7138
шыны	-7139
▁есі	-7140
▁келуі	-7141
▁Ерлан	-7142
▁жалғастыру	-7143
▁мәм	-7144
▁Германия	-7145
▁себеб	-7146
тарымен	-7147
генің	-7148
▁Презентация	-7149
▁қолына	-7150
эфф	-7151
▁істі	-7152
▁ахуал	-7153
жап	-7154
▁атмосфер	-7155
еңке	-7156
▁арнап	-7157
▁айналысатын	-7158
▁серв	-7159
▁ғасырлар	-7160
▁ұзар	-7161
▁жылқы	-7162
▁режиссер	-7163
▁көрнекті	-7164
горит	-7165
▁Инвест	-7166
▁мүмкіндіктері	-7167
▁куб	-7168
▁Неге	-7169
беу	-7170
▁анықтал	-7171
▁немер	-7172
аун	-7173
▁жобаларды	-7174
▁кіс	-7175
Ол	-7176
обильді	-7177
▁Жұ	-7178
▁бейімдел	-7179
▁серіктестік	-7180
▁НҰР	-7181
тіс	-7182
іздер	-7183
байжан	-7184
▁аңғар	-7185
▁Әдетте	-7186
АСЫ	-7187
ақан	-7188
цев	-7189
▁қасиеттерін	-7190
дром	-7191
Мемлекеттік	-7192
ее	-7193
▁кәсіпорынның	-7194
▁банктің	-7195
▁ман	-7196
▁Омар	-7197
▁сөндіру	-7198
▁Жу	-7199
▁жабдықтау	-7200
ақтарын	-7201
Түр	-7202
ou	-7203
осф	-7204
▁Өлең	-7205
▁тамақтан	-7206
azakh	-7207
▁экстр	-7208
▁Ки	-7209
▁Экология	-7210
▁ик	-7211
ММ	-7212
▁Еске	-7213
▁ара	-7214
▁елдері	-7215
▁болашақта	-7216
▁есімді	-7217
осп	-7218
▁еліміздегі	-7219
▁құш	-7220
▁ақынның	-7221
▁асыратын	-7222
▁ісік	-7223
▁жеңілдік	-7224
▁мақұл	-7225
▁бөлімінде	-7226
▁облысындағы	-7227
▁деректерді	-7228
ash	-7229
▁редактор	-7230
аларымен	-7231
▁жанында	-7232
▁қасиеті	-7233
▁интеллек	-7234
▁пікірлер	-7235
▁Әдебиет	-7236
тымыз	-7237
▁Кәсіпорын	-7238
істерді	-7239
▁Муз	-7240
▁жеткізе	-7241
▁желісі	-7242
▁қалыптасуы	-7243
▁'	-7244
▁Мо	-7245
▁Болат	-7246
жаң	-7247
▁түсіріп	-7248
▁қорғауға	-7249
мұхам	-7250
▁жағдайына	-7251
жөн	-7252
▁прокурор	-7253
▁шексіз	-7254
▁қолданып	-7255
▁қажеттілігі	-7256
гінен	-7257
ования	-7258
▁Абылай	-7259
▁лас	-7260
▁өздерін	-7261
▁қағаздар	-7262
▁жарақат	-7263
▁корп	-7264
▁ұйымдастыруымен	-7265
▁Есен	-7266
қыт	-7267
▁Болашақ	-7268
▁біртіндеп	-7269
▁сүз	-7270
▁кітаб	-7271
▁жөнел	-7272
рі	-7273
дос	-7274
▁міндеттерді	-7275
▁өмірлік	-7276
▁көретін	-7277
▁істеді	-7278
▁үлгісі	-7279
▁тему	-7280
▁тұрмыстық	-7281
»,-	-7282
▁саясатын	-7283
авл	-7284
▁Стат	-7285
▁Академ	-7286
▁адамзат	-7287
ческ	-7288
▁Рам	-7289
▁Араб	-7290
▁орындар	-7291
СК	-7292
▁процес	-7293
tr	-7294
гісі	-7295
▁тапсырмасын	-7296
▁мақсатты	-7297
▁жіберді	-7298
▁Республикасында	-7299
▁ұйымдастырылды	-7300
▁жүктеу	-7301
күн	-7302
▁Владимир	-7303
▁грант	-7304
▁ыдыс	-7305
▁тәртібін	-7306
▁әсерінен	-7307
▁жалақы	-7308
▁деңгейіне	-7309
▁ЖАҢ	-7310
yl	-7311
▁хирург	-7312
▁қалу	-7313
▁тоқтату	-7314
▁дүниежүзілік	-7315
▁жатырмыз	-7316
▁Мет	-7317
▁оқитын	-7318
▁отыру	-7319
▁зерттел	-7320
▁біткен	-7321
▁қоғамда	-7322
енттің	-7323
▁премьер	-7324
▁қолданған	-7325
▁аталмыш	-7326
▁жаста	-7327
▁осыдан	-7328
▁сабағы	-7329
еология	-7330
▁Дәрігер	-7331
▁Пат	-7332
▁Азаттық	-7333
oogle	-7334
▁жүргізген	-7335
▁өкілдерінің	-7336
▁тұрғыз	-7337
▁Бүкіл	-7338
▁ұшып	-7339
▁Қайыр	-7340
▁бюджеттік	-7341
▁Жүк	-7342
▁байланысы	-7343
▁Елорда	-7344
▁слайда	-7345
▁жабық	-7346
▁салау	-7347
▁шараларды	-7348
▁қалаған	-7349
▁алудың	-7350
гіндегі	-7351
аттарға	-7352
▁жеткізуге	-7353
▁Ст	-7354
▁нәзік	-7355
қон	-7356
▁тәтті	-7357
▁құттықтау	-7358
▁заманда	-7359
▁тазалау	-7360
ществ	-7361
ist	-7362
▁Мин	-7363
алқы	-7364
VID	-7365
ндай	-7366
▁құдай	-7367
▁символ	-7368
▁роман	-7369
▁болдырмау	-7370
▁бірлестік	-7371
▁қасық	-7372
▁мағынасы	-7373
▁шөл	-7374
▁жарым	-7375
уллин	-7376
▁кәсіпор	-7377
күйек	-7378
▁ашқан	-7379
атындай	-7380
мәдени	-7381
**	-7382
▁Алланың	-7383
▁ауырсын	-7384
▁прокуратур	-7385
▁санының	-7386
▁бастан	-7387
▁тұрғындарының	-7388
▁жиынтық	-7389
КТ	-7390
қанды	-7391
▁Құран	-7392
ЕРІ	-7393
естен	-7394
sh	-7395
▁ауылының	-7396
▁Өзін	-7397
▁арм	-7398
▁кедей	-7399
▁автобус	-7400
оид	-7401
▁қосты	-7402
▁өміріне	-7403
кестер	-7404
ций	-7405
▁елдерде	-7406
▁гол	-7407
▁ары	-7408
▁территор	-7409
▁студенттері	-7410
▁жолымен	-7411
ыңыздар	-7412
▁құбылыс	-7413
▁тәсілдері	-7414
▁толтыру	-7415
▁ағар	-7416
▁пайдаланылады	-7417
яды	-7418
▁өндірісі	-7419
▁топтың	-7420
құлов	-7421
▁қуыр	-7422
туалды	-7423
▁Өте	-7424
ыққан	-7425
▁тәлім	-7426
▁айдан	-7427
ТО	-7428
stagram	-7429
▁Орыс	-7430
▁Дау	-7431
ентр	-7432
▁кеңей	-7433
ларымен	-7434
▁теміржол	-7435
министрі	-7436
▁беріліп	-7437
даны	-7438
▁әзірлен	-7439
▁жетілдір	-7440
▁түсінікті	-7441
бұдан	-7442
▁ұсталды	-7443
альдық	-7444
▁шартты	-7445
▁өздігінен	-7446
▁Бл	-7447
отехн	-7448
▁Елімізде	-7449
▁Адамның	-7450
тип	-7451
▁мақалалар	-7452
▁сараптама	-7453
▁жастарға	-7454
▁жұқтырған	-7455
▁емтихан	-7456
шаруашылық	-7457
Әл	-7458
ценарий	-7459
аку	-7460
▁үлгілер	-7461
▁ашты	-7462
▁үйлестіру	-7463
▁өткізген	-7464
▁сенің	-7465
▁нені	-7466
▁сақталады	-7467
▁қабылдайды	-7468
▁қабат	-7469
▁тамақтану	-7470
▁парламент	-7471
▁дамуын	-7472
рет	-7473
▁тілдік	-7474
ежір	-7475
▁Олай	-7476
екторы	-7477
▁әділет	-7478
▁қауіпсіздігін	-7479
▁Әлі	-7480
▁Мас	-7481
ost	-7482
демақ	-7483
▁алушы	-7484
ңгі	-7485
▁болмайтын	-7486
▁жауып	-7487
▁Қатыс	-7488
овы	-7489
▁ши	-7490
▁Ендеше	-7491
▁температурасы	-7492
еун	-7493
▁тес	-7494
▁биіктігі	-7495
ког	-7496
▁қаупі	-7497
▁молекул	-7498
▁Құрылыс	-7499
▁тұрмыс	-7500
сүй	-7501
▁ақшалай	-7502
▁тиімділігі	-7503
іміздегі	-7504
▁тармақ	-7505
▁Әмір	-7506
▁Жән	-7507
▁компьютерлік	-7508
▁пойыз	-7509
▁барды	-7510
істе	-7511
▁Құрман	-7512
▁Кездесу	-7513
▁едәуір	-7514
▁борыш	-7515
▁мерекесі	-7516
▁нысаны	-7517
▁тестілеу	-7518
иясына	-7519
кар	-7520
алиев	-7521
▁төңір	-7522
▁артады	-7523
инді	-7524
▁жаһандық	-7525
шілерге	-7526
ib	-7527
▁ТЖ	-7528
▁мұның	-7529
ность	-7530
ЫНДА	-7531
▁h	-7532
▁теңдеу	-7533
▁төртінші	-7534
▁салым	-7535
▁бағыттары	-7536
▁штат	-7537
▁мақсатқа	-7538
▁қуан	-7539
▁міндетін	-7540
▁бөлінді	-7541
▁ережелері	-7542
▁мектептер	-7543
▁and	-7544
ылса	-7545
▁адамнан	-7546
етінше	-7547
▁интег	-7548
▁нүк	-7549
▁Сағын	-7550
емі	-7551
▁динам	-7552
Тіл	-7553
таль	-7554
▁қорқын	-7555
▁жеткізген	-7556
калар	-7557
эт	-7558
▁аламын	-7559
▁эв	-7560
▁бейнелеу	-7561
▁Жылжымайтын	-7562
▁құрылымдық	-7563
▁жұмыстарының	-7564
онның	-7565
▁командасы	-7566
арын	-7567
озы	-7568
▁жиырма	-7569
▁материалды	-7570
▁жабдықтар	-7571
▁қызығушылығын	-7572
▁тұтыну	-7573
▁Алдағы	-7574
▁Жария	-7575
ырауқұл	-7576
▁Нью	-7577
▁айтылады	-7578
▁ауқым	-7579
ира	-7580
▁сө	-7581
▁валюта	-7582
▁қосылады	-7583
▁бүйрек	-7584
▁баспа	-7585
кесін	-7586
▁рен	-7587
лұм	-7588
шылдық	-7589
▁сұрақтары	-7590
▁орнатылған	-7591
▁әсем	-7592
▁хабардар	-7593
ie	-7594
▁қоныс	-7595
▁жасында	-7596
▁мемлекеттер	-7597
▁төб	-7598
▁уақытты	-7599
▁әдеп	-7600
стері	-7601
Қазақстанның	-7602
▁жаққа	-7603
▁филиалы	-7604
▁шекара	-7605
▁былтыр	-7606
▁Асыл	-7607
▁тізбек	-7608
▁Өнеркәсіп	-7609
▁егемен	-7610
▁иегері	-7611
▁Вен	-7612
▁осында	-7613
▁ЖОО	-7614
▁жобаны	-7615
▁асы	-7616
▁түл	-7617
▁Мына	-7618
▁фестивал	-7619
аңызды	-7620
▁өзің	-7621
▁өмірінің	-7622
▁аппараты	-7623
ұн	-7624
ец	-7625
бұрыш	-7626
▁қойылады	-7627
има	-7628
▁соғысы	-7629
енко	-7630
▁мәдениетін	-7631
▁жолаушылар	-7632
ұя	-7633
бн	-7634
▁басп	-7635
▁қабылдап	-7636
▁иелері	-7637
▁денсаулығы	-7638
▁қалада	-7639
▁бағыттағы	-7640
ғанын	-7641
▁Кодек	-7642
тур	-7643
▁Ақпараттық	-7644
▁айтыс	-7645
ылуын	-7646
▁синдром	-7647
елейді	-7648
ике	-7649
▁ұйық	-7650
Білім	-7651
▁Әділет	-7652
▁білдіріп	-7653
▁мүлде	-7654
▁есептер	-7655
▁Барлығы	-7656
▁кесте	-7657
▁жазғы	-7658
Пр	-7659
арус	-7660
▁ертегі	-7661
терек	-7662
гар	-7663
ғазы	-7664
▁коэфф	-7665
▁саласына	-7666
ъез	-7667
▁есірткі	-7668
▁бағасын	-7669
апан	-7670
▁метод	-7671
▁келісімшарт	-7672
▁заңы	-7673
▁компанияның	-7674
▁ашылады	-7675
▁кесіп	-7676
▁қате	-7677
МК	-7678
▁танысу	-7679
▁қайтып	-7680
орган	-7681
ыке	-7682
▁елдерінің	-7683
▁түсі	-7684
▁кафедрасының	-7685
▁қатерлі	-7686
▁француз	-7687
▁БА	-7688
▁өткізілген	-7689
▁ішіне	-7690
▁достық	-7691
▁қола	-7692
▁жүйке	-7693
▁Қалай	-7694
▁отыратын	-7695
икандық	-7696
▁сайынғы	-7697
дик	-7698
▁Отыр	-7699
▁құқықтарын	-7700
▁Көкшетау	-7701
▁санайды	-7702
бит	-7703
овкин	-7704
▁адамз	-7705
▁отбасының	-7706
байұлы	-7707
ондар	-7708
▁тұрғындардың	-7709
ысқан	-7710
іспе	-7711
икасының	-7712
▁сағаты	-7713
▁өткір	-7714
▁балалары	-7715
▁жерін	-7716
▁жаңбыр	-7717
▁суы	-7718
▁ом	-7719
▁Өкін	-7720
▁академиялық	-7721
▁жылдамдығы	-7722
▁желтоқсанда	-7723
▁Шымкентте	-7724
▁Республика	-7725
▁айырбас	-7726
»-	-7727
▁ережелер	-7728
▁айтылды	-7729
▁ықтимал	-7730
▁Саясат	-7731
▁ОР	-7732
▁ұйымның	-7733
▁күшіне	-7734
▁компоненттер	-7735
▁біреуі	-7736
ile	-7737
▁лиг	-7738
▁топтас	-7739
▁сым	-7740
Мат	-7741
▁шах	-7742
▁Ауғанстан	-7743
▁Орда	-7744
▁дәрежеде	-7745
▁пішін	-7746
▁қойн	-7747
▁Көб	-7748
▁қайталан	-7749
▁мағлұм	-7750
▁жасалып	-7751
атылы	-7752
▁критер	-7753
рах	-7754
▁құрб	-7755
▁Байқау	-7756
▁га	-7757
▁Қараша	-7758
рист	-7759
асу	-7760
▁Кал	-7761
▁жігіттер	-7762
дығының	-7763
▁аймағында	-7764
▁зердел	-7765
▁аптада	-7766
▁деңгейінде	-7767
▁іздест	-7768
▁схем	-7769
▁брен	-7770
▁келер	-7771
лесе	-7772
▁парыз	-7773
кл	-7774
▁ММ	-7775
▁пыс	-7776
баз	-7777
▁демек	-7778
▁ханның	-7779
▁десек	-7780
шев	-7781
▁сәулет	-7782
▁тәрбиесі	-7783
▁талғам	-7784
▁дәрілік	-7785
▁Белгілі	-7786
етан	-7787
all	-7788
▁басшылар	-7789
▁мұң	-7790
айтқыш	-7791
▁ерлік	-7792
▁сөзбен	-7793
▁керне	-7794
чи	-7795
ard	-7796
▁түбір	-7797
▁Құнан	-7798
КСП	-7799
▁түстер	-7800
▁пеш	-7801
▁Шал	-7802
▁Өсімдік	-7803
▁неміс	-7804
данып	-7805
▁Пут	-7806
▁факторлар	-7807
▁қасиет	-7808
▁вел	-7809
▁уәде	-7810
▁жеріне	-7811
ығындағы	-7812
▁языке	-7813
▁Алматыдағы	-7814
▁ҚазҰ	-7815
▁Дереккөздер	-7816
▁салада	-7817
▁құрып	-7818
▁категория	-7819
▁жәрдемақ	-7820
▁болдым	-7821
адастр	-7822
▁соғы	-7823
▁Із	-7824
▁өткізеді	-7825
дікті	-7826
▁тарихында	-7827
▁жұмыстарына	-7828
▁сайтында	-7829
▁Ме	-7830
▁орындарын	-7831
▁бұйыр	-7832
ment	-7833
▁шк	-7834
▁алаңы	-7835
икип	-7836
ОМ	-7837
тәрби	-7838
▁Әбіш	-7839
▁беті	-7840
▁лауазымды	-7841
▁Алдыңғы	-7842
▁Сәуір	-7843
min	-7844
▁АР	-7845
▁шү	-7846
...»	-7847
▁олимпиада	-7848
▁пайғамбар	-7849
▁Был	-7850
Бар	-7851
▁беріңіз	-7852
ства	-7853
▁Дүй	-7854
▁қалалар	-7855
дірілген	-7856
▁қайдан	-7857
▁Маған	-7858
▁кеңейт	-7859
▁ШҚО	-7860
балар	-7861
▁COVID	-7862
▁ерекшеленеді	-7863
▁қызметінде	-7864
▁тапсырмасы	-7865
▁қараш	-7866
▁ави	-7867
▁батыл	-7868
▁қойм	-7869
▁қазақтар	-7870
бул	-7871
▁кездері	-7872
▁Көлік	-7873
▁III	-7874
▁гектар	-7875
ҰЛТАН	-7876
ингв	-7877
▁ұялы	-7878
▁жұмыстан	-7879
▁өзгеруі	-7880
▁жур	-7881
▁едің	-7882
жатты	-7883
▁ұрпаққа	-7884
▁жоққа	-7885
имназ	-7886
видео	-7887
оскоп	-7888
▁ағайын	-7889
▁судья	-7890
▁индек	-7891
иалды	-7892
.).	-7893
▁асқын	-7894
▁өнеркәсіптік	-7895
▁й	-7896
▁ресур	-7897
игур	-7898
▁болғанымен	-7899
тәсіл	-7900
жі	-7901
▁Еліміздің	-7902
▁конститу	-7903
▁таңертең	-7904
▁Диплом	-7905
▁шарттары	-7906
▁град	-7907
▁абырой	-7908
гл	-7909
▁кандидат	-7910
▁әкеліп	-7911
ықтан	-7912
▁Нем	-7913
▁ақы	-7914
▁жоспарын	-7915
▁болмас	-7916
▁басқарудың	-7917
▁Каз	-7918
▁өткізіледі	-7919
▁Жоғарыда	-7920
опавл	-7921
она	-7922
▁Қаш	-7923
▁басқан	-7924
▁пас	-7925
▁орден	-7926
▁міне	-7927
деледі	-7928
▁спек	-7929
▁жарам	-7930
▁Ұлт	-7931
Бай	-7932
▁күрт	-7933
▁процесін	-7934
стану	-7935
▁басталып	-7936
▁тонн	-7937
▁r	-7938
▁кемінде	-7939
▁күшін	-7940
▁Рефер	-7941
▁елорда	-7942
▁формасы	-7943
▁мәліметінше	-7944
hone	-7945
циаль	-7946
▁болмады	-7947
▁күйінде	-7948
▁жаттығулар	-7949
ЛЫҚ	-7950
▁жаны	-7951
▁мөлшерлем	-7952
▁ережелерін	-7953
етте	-7954
▁Алды	-7955
▁Арт	-7956
▁аулақ	-7957
ымын	-7958
▁Қорған	-7959
новация	-7960
▁білді	-7961
бею	-7962
▁ханды	-7963
ірілген	-7964
▁сусын	-7965
▁Головкин	-7966
▁көрме	-7967
▁Жай	-7968
еттердің	-7969
ep	-7970
yr	-7971
▁бағдарламасына	-7972
▁ше	-7973
▁публ	-7974
ғылт	-7975
▁райы	-7976
▁әз	-7977
ется	-7978
АП	-7979
ила	-7980
▁Күр	-7981
▁тақырыпты	-7982
▁жұмыссыз	-7983
▁өздеріне	-7984
осу	-7985
▁наразылық	-7986
▁ақшаны	-7987
▁осылайша	-7988
▁Му	-7989
аланған	-7990
▁Бо	-7991
▁алма	-7992
▁Тын	-7993
лыл	-7994
олар	-7995
ғалиев	-7996
пыз	-7997
іпсіздік	-7998
▁дәрежесі	-7999
▁деуге	-8000
Ав	-8001
алақ	-8002
тығының	-8003
▁хол	-8004
▁бәй	-8005
old	-8006
▁танып	-8007
▁теледи	-8008
▁қыздың	-8009
▁Бірнеше	-8010
▁сиг	-8011
▁сүйек	-8012
▁логикалық	-8013
игиен	-8014
▁лайық	-8015
▁препарат	-8016
▁пара	-8017
▁түрлен	-8018
▁Google	-8019
▁Күл	-8020
сыздандыру	-8021
▁сені	-8022
▁жасына	-8023
▁фото	-8024
ағынан	-8025
▁білуі	-8026
▁газетінің	-8027
▁есептік	-8028
▁айтатын	-8029
▁орындарында	-8030
Ой	-8031
▁оқиды	-8032
▁сұраққа	-8033
▁өне	-8034
▁рейтинг	-8035
▁g	-8036
▁қарас	-8037
олит	-8038
▁кадастр	-8039
▁қуаты	-8040
▁облыстың	-8041
▁таратыл	-8042
▁Толығырақ	-8043
▁нөмірі	-8044
▁көбі	-8045
эк	-8046
інеді	-8047
▁игі	-8048
шылығына	-8049
▁дайындалған	-8050
▁арақ	-8051
▁көшу	-8052
КСПО	-8053
▁процед	-8054
▁Қам	-8055
ілуіне	-8056
▁Instagram	-8057
▁негізде	-8058
▁Оп	-8059
▁жариялау	-8060
▁құнын	-8061
▁жақс	-8062
▁көздері	-8063
▁қалыптасады	-8064
▁тілдің	-8065
▁наурызда	-8066
▁доктор	-8067
▁есеге	-8068
▁істем	-8069
▁мамырда	-8070
qu	-8071
▁жарнама	-8072
▁органикалық	-8073
▁Оларға	-8074
▁міндеттерін	-8075
▁бірінде	-8076
▁Каспий	-8077
▁Шам	-8078
тігі	-8079
▁Қаңтар	-8080
▁аймағы	-8081
▁шат	-8082
есплат	-8083
▁басу	-8084
▁кіретін	-8085
▁Биылғы	-8086
▁талқыланды	-8087
▁саналы	-8088
▁жіп	-8089
▁процесінде	-8090
▁салыстыру	-8091
▁Арман	-8092
▁екіншісі	-8093
▁Шо	-8094
▁қойылым	-8095
лықпен	-8096
▁Таш	-8097
СҰЛТАН	-8098
▁материалдары	-8099
▁олимпи	-8100
тапқы	-8101
орк	-8102
▁сабақты	-8103
▁Ақпан	-8104
▁аурулары	-8105
Жер	-8106
▁ашуға	-8107
АЛЫ	-8108
▁танысты	-8109
▁игеру	-8110
▁ҚАЗАҚСТАН	-8111
тігін	-8112
▁еті	-8113
▁жалғасы	-8114
ast	-8115
жын	-8116
▁салынып	-8117
▁теория	-8118
▁қолынан	-8119
▁жад	-8120
▁үйрену	-8121
істен	-8122
▁градус	-8123
▁жариялан	-8124
▁жатса	-8125
▁Мұхаммед	-8126
уляция	-8127
шісіне	-8128
айз	-8129
▁сипатталады	-8130
▁әдеттегі	-8131
ухгалтерлік	-8132
▁болаш	-8133
діріп	-8134
▁қазын	-8135
▁ауызша	-8136
▁әлемі	-8137
▁саласын	-8138
▁денсаулығына	-8139
▁созылмалы	-8140
▁жоспарлап	-8141
аңдар	-8142
ec	-8143
▁қырық	-8144
▁кестесі	-8145
▁сана	-8146
▁есепті	-8147
▁бая	-8148
▁психикалық	-8149
▁аймақта	-8150
енген	-8151
▁бетінше	-8152
▁жатқанда	-8153
▁таңдаған	-8154
ектік	-8155
▁Жеңіс	-8156
▁ток	-8157
▁дерлік	-8158
мит	-8159
▁табыст	-8160
▁Әділ	-8161
▁App	-8162
▁көтерген	-8163
ҮР	-8164
▁бетінен	-8165
▁арттырады	-8166
стағы	-8167
▁сақтай	-8168
▁мақсаттары	-8169
▁билігі	-8170
тіңіз	-8171
▁Полиция	-8172
▁төсек	-8173
▁агенттігінің	-8174
▁жылдығы	-8175
▁гор	-8176
▁күнтізбелік	-8177
▁студенттердің	-8178
▁көзін	-8179
дасы	-8180
io	-8181
▁қызметкерлердің	-8182
▁аналар	-8183
▁Марат	-8184
▁Өр	-8185
▁білесіз	-8186
▁жанкүй	-8187
тіл	-8188
▁ұстаған	-8189
▁қолдауымен	-8190
іңізде	-8191
▁Мәтін	-8192
▁біле	-8193
▁уақытын	-8194
▁көркемдік	-8195
▁қиял	-8196
аторы	-8197
▁кеңс	-8198
▁Ғаб	-8199
▁биология	-8200
струкция	-8201
▁көбіне	-8202
▁див	-8203
тпесе	-8204
▁қамт	-8205
ламенті	-8206
▁делег	-8207
басында	-8208
▁үкіметі	-8209
▁мезг	-8210
щы	-8211
▁қашып	-8212
ағып	-8213
дия	-8214
▁;	-8215
▁субсид	-8216
▁бермей	-8217
▁кішкене	-8218
▁жайт	-8219
▁Үйге	-8220
▁вакцин	-8221
▁барша	-8222
▁айтсақ	-8223
▁демократиялық	-8224
▁педагогика	-8225
▁Шеш	-8226
▁тет	-8227
▁аралығ	-8228
▁жағына	-8229
▁қабатты	-8230
▁қолында	-8231
▁Жоспар	-8232
▁анықтады	-8233
▁хабарлама	-8234
▁мыңдаған	-8235
пектив	-8236
▁бөлісіңіз	-8237
▁Шығарма	-8238
пидемиологиялық	-8239
▁мәслих	-8240
▁құралдарының	-8241
▁An	-8242
етіп	-8243
финг	-8244
▁ауруханаға	-8245
▁ду	-8246
▁көрмесі	-8247
измнің	-8248
оним	-8249
▁жаяу	-8250
ибр	-8251
▁Сәр	-8252
▁тарт	-8253
Ұлы	-8254
▁Ыс	-8255
▁орнынан	-8256
адақ	-8257
▁ыдыр	-8258
ынаны	-8259
▁қырғыз	-8260
▁актер	-8261
▁жарыл	-8262
▁кептір	-8263
▁The	-8264
▁комментар	-8265
▁бостандық	-8266
▁шынымен	-8267
дімгі	-8268
жу	-8269
▁білдірген	-8270
▁лицензия	-8271
Көк	-8272
▁қызметтерін	-8273
▁ақылды	-8274
▁реферат	-8275
AZ	-8276
потек	-8277
тырылған	-8278
аудан	-8279
▁тырысады	-8280
▁секунд	-8281
анов	-8282
▁как	-8283
▁сөздері	-8284
матикалық	-8285
▁Сыбайлас	-8286
▁кетуі	-8287
дігер	-8288
▁позиция	-8289
▁жандар	-8290
▁үлесін	-8291
▁Информатика	-8292
▁кент	-8293
▁информ	-8294
▁Талдық	-8295
▁күтім	-8296
▁Байланыс	-8297
▁шежір	-8298
▁айқ	-8299
▁Күш	-8300
▁тұсау	-8301
▁Тәжік	-8302
▁сөзінде	-8303
▁кеңісті	-8304
▁атанған	-8305
▁дипломдық	-8306
▁Оқушыларды	-8307
▁Эн	-8308
ауыл	-8309
▁Қабыл	-8310
▁жеткізіп	-8311
әне	-8312
тырады	-8313
▁көбею	-8314
▁Инвестиция	-8315
▁бейнесі	-8316
▁дереу	-8317
тұтас	-8318
Бү	-8319
озитор	-8320
▁тос	-8321
▁атқару	-8322
nik	-8323
лану	-8324
▁екеніне	-8325
▁есептел	-8326
▁ықыл	-8327
▁округі	-8328
егейлі	-8329
ауыз	-8330
Қызыл	-8331
▁көрші	-8332
▁Қат	-8333
▁ондағы	-8334
▁орындайды	-8335
▁тудырады	-8336
▁Африка	-8337
▁өзенінің	-8338
▁біліктілігін	-8339
news	-8340
▁атқарып	-8341
▁ойлас	-8342
▁емесп	-8343
окол	-8344
ros	-8345
▁қолданыстағы	-8346
▁жырау	-8347
▁Са	-8348
▁сти	-8349
▁зерттеп	-8350
▁тепе	-8351
ont	-8352
▁ақылы	-8353
▁Осының	-8354
Кө	-8355
иктор	-8356
▁қызметтері	-8357
▁Бос	-8358
шалар	-8359
▁гүлден	-8360
SB	-8361
▁аумақтық	-8362
▁жетіспеу	-8363
▁тіркелді	-8364
▁ақсақ	-8365
▁Түй	-8366
▁пікірін	-8367
▁кітабы	-8368
▁шешен	-8369
▁қамтитын	-8370
▁Көрнек	-8371
▁топтар	-8372
▁ағарту	-8373
▁бидай	-8374
▁экспер	-8375
▁түйін	-8376
▁шақыру	-8377
▁зорлық	-8378
▁елест	-8379
вор	-8380
▁шамасында	-8381
IV	-8382
▁сүрген	-8383
▁атқарды	-8384
▁Нес	-8385
ang	-8386
▁көлігі	-8387
▁ұлттың	-8388
▁картоп	-8389
старын	-8390
желгі	-8391
▁Ти	-8392
▁қаншама	-8393
▁архив	-8394
лед	-8395
▁Әрі	-8396
▁Жоқ	-8397
▁шенеун	-8398
▁астық	-8399
▁Дене	-8400
▁Соған	-8401
▁дамудың	-8402
▁жердегі	-8403
руп	-8404
▁Толық	-8405
кердің	-8406
ілмейді	-8407
айыр	-8408
коголь	-8409
▁бұзылуы	-8410
үлеймен	-8411
▁аралап	-8412
гелі	-8413
▁соққы	-8414
▁Жұлдыз	-8415
▁өзіңіздің	-8416
ows	-8417
бы	-8418
▁Вал	-8419
▁жылдардағы	-8420
жігер	-8421
еңк	-8422
▁көлемде	-8423
▁рефераттар	-8424
▁шектел	-8425
мбеб	-8426
▁құрылғы	-8427
▁жариялаған	-8428
▁ұғын	-8429
▁on	-8430
▁қайс	-8431
▁Аймақ	-8432
▁талаптарын	-8433
▁жарамды	-8434
▁сей	-8435
адық	-8436
▁кірген	-8437
▁бірлесе	-8438
см	-8439
ятель	-8440
▁көй	-8441
ақта	-8442
артады	-8443
▁сөзіне	-8444
▁пандем	-8445
▁қызметінен	-8446
▁өлшемі	-8447
ометрия	-8448
▁жіберіп	-8449
▁әйелдің	-8450
▁құқықтар	-8451
▁Қыркүйек	-8452
▁энциклоп	-8453
▁коммуникациялар	-8454
▁тұғыр	-8455
▁қаңтарда	-8456
▁аяғы	-8457
▁Қанат	-8458
Осы	-8459
▁мәңгілік	-8460
деби	-8461
▁кеуде	-8462
▁байлық	-8463
▁айналдыру	-8464
▁санат	-8465
▁Рус	-8466
▁тигізеді	-8467
▁қарқын	-8468
▁баяндам	-8469
ity	-8470
▁конферен	-8471
▁пікірінше	-8472
▁боламыз	-8473
лігімен	-8474
▁қорық	-8475
▁мұхит	-8476
есектер	-8477
жеке	-8478
▁мезгілде	-8479
▁рәм	-8480
▁толықтырулар	-8481
▁Биология	-8482
▁жібереді	-8483
қоңыр	-8484
▁демеу	-8485
ight	-8486
▁қарайды	-8487
▁байланыстар	-8488
пау	-8489
▁келмейтін	-8490
шім	-8491
нат	-8492
▁шығармалар	-8493
▁күнін	-8494
елерде	-8495
▁жақта	-8496
▁Беларус	-8497
▁тілге	-8498
ентті	-8499
▁мүмкіндіктерін	-8500
ыңыздың	-8501
данды	-8502
▁мемлекеттердің	-8503
▁Ақыл	-8504
тұрсын	-8505
ымнан	-8506
▁сөйлеген	-8507
▁топтық	-8508
▁Қарақ	-8509
ылы	-8510
▁Ам	-8511
ығып	-8512
▁нов	-8513
▁әлгі	-8514
▁ерлер	-8515
▁өзіңіз	-8516
▁шындық	-8517
жер	-8518
▁жаттықтыру	-8519
▁өсуіне	-8520
▁Лонд	-8521
▁еңбекке	-8522
▁акционерлік	-8523
tan	-8524
▁құбылыстар	-8525
▁жобасының	-8526
▁Біріншіден	-8527
ібір	-8528
арх	-8529
▁материалы	-8530
СТАНА	-8531
▁баулу	-8532
▁пыш	-8533
▁Кеден	-8534
ҚА	-8535
аһар	-8536
▁өсім	-8537
ГЕ	-8538
▁тастады	-8539
▁мерзімге	-8540
▁Шілде	-8541
%)	-8542
▁отырыңыз	-8543
▁мобильді	-8544
▁кесу	-8545
мәтел	-8546
▁тұтқын	-8547
▁Жем	-8548
уп	-8549
▁Қытайдың	-8550
▁көрсеткіштері	-8551
▁өзгеше	-8552
Жан	-8553
▁қалыптастыруға	-8554
▁қызметтердің	-8555
▁Уикип	-8556
Ес	-8557
▁бейбітшілік	-8558
▁Сәлем	-8559
▁гуманитарлық	-8560
▁рын	-8561
ore	-8562
▁сәуірде	-8563
халық	-8564
zh	-8565
ілердің	-8566
олла	-8567
імдердің	-8568
▁Иман	-8569
▁шығармашылығы	-8570
вей	-8571
▁жасалатын	-8572
▁Ресейде	-8573
омат	-8574
▁біліктілік	-8575
шу	-8576
▁нек	-8577
▁әдебиетінің	-8578
изнесті	-8579
▁Байтұрсын	-8580
▁форма	-8581
▁Ағым	-8582
ица	-8583
▁XX	-8584
▁кітаптар	-8585
лим	-8586
▁естелік	-8587
яз	-8588
▁тапсырмаларды	-8589
▁таңдаңыз	-8590
▁жанама	-8591
▁шыны	-8592
▁тазарту	-8593
▁Сап	-8594
▁үйді	-8595
▁сәйке	-8596
▁жобаның	-8597
▁перз	-8598
▁жасауды	-8599
аева	-8600
ірік	-8601
▁жастарды	-8602
▁Опер	-8603
▁классикалық	-8604
▁жабдықталған	-8605
▁Әлемдік	-8606
ell	-8607
▁кездей	-8608
евтің	-8609
▁ақау	-8610
AS	-8611
омо	-8612
▁бухгалтерлік	-8613
▁мәнер	-8614
▁фон	-8615
▁зап	-8616
▁рөлін	-8617
▁диск	-8618
▁бесплат	-8619
▁жүргізді	-8620
▁ісіне	-8621
ЕУ	-8622
▁Екіншіден	-8623
▁астанасы	-8624
▁жән	-8625
маса	-8626
▁Й	-8627
▁азаматтарға	-8628
▁құқылы	-8629
▁математикалық	-8630
▁Петропавл	-8631
▁мекемесі	-8632
▁бастама	-8633
▁білдіретін	-8634
▁алар	-8635
▁орталығына	-8636
▁бермеу	-8637
▁бұзылу	-8638
▁өкім	-8639
әлем	-8640
Әу	-8641
▁шош	-8642
өнеркәсіп	-8643
▁Оқушыларға	-8644
▁алынатын	-8645
эй	-8646
▁қоғамдағы	-8647
ai	-8648
indows	-8649
▁өнімдерінің	-8650
опалық	-8651
▁курстар	-8652
елерімен	-8653
OS	-8654
▁астына	-8655
▁жолды	-8656
▁белсенділік	-8657
▁Жүй	-8658
▁Дим	-8659
▁заңға	-8660
▁тағайындау	-8661
Мар	-8662
БЛ	-8663
▁қазанда	-8664
▁көрсетілді	-8665
▁Жүсіп	-8666
▁экстрем	-8667
мысалы	-8668
▁вол	-8669
▁деңгейге	-8670
▁түсіндірді	-8671
дайы	-8672
▁Казахстана	-8673
▁ортаның	-8674
▁цех	-8675
▁ашады	-8676
есеп	-8677
ео	-8678
Ауыл	-8679
▁конф	-8680
мызды	-8681
▁беруі	-8682
▁виде	-8683
гілері	-8684
Сен	-8685
▁Кіріспе	-8686
▁st	-8687
баты	-8688
▁салауатты	-8689
ред	-8690
▁гипер	-8691
БА	-8692
▁ұйқы	-8693
еком	-8694
▁ыс	-8695
▁азаматтары	-8696
▁Пор	-8697
▁әйелі	-8698
▁тыңайтқыш	-8699
елетке	-8700
▁кездесіп	-8701
горитм	-8702
хоз	-8703
▁Әли	-8704
▁шаруашылығын	-8705
▁нә	-8706
зай	-8707
▁медиа	-8708
▁бұзу	-8709
▁Рас	-8710
▁айына	-8711
▁Ет	-8712
омер	-8713
электр	-8714
танушы	-8715
▁КЕ	-8716
▁сөздердің	-8717
▁қарашада	-8718
▁жолдар	-8719
▁саясатының	-8720
осы	-8721
мес	-8722
▁серп	-8723
▁арасынан	-8724
▁қатарынан	-8725
Рухани	-8726
▁дәмді	-8727
істердің	-8728
▁банктік	-8729
итет	-8730
касы	-8731
▁шама	-8732
егім	-8733
ена	-8734
▁ішек	-8735
▁Қысқа	-8736
басына	-8737
▁Әбу	-8738
▁еліне	-8739
▁байланыста	-8740
▁қарсылас	-8741
▁кездейсоқ	-8742
▁ересек	-8743
ТК	-8744
▁ұшыраған	-8745
қап	-8746
окр	-8747
▁имам	-8748
▁қосалқы	-8749
ok	-8750
бегін	-8751
▁сұраған	-8752
▁гер	-8753
▁әңгімелес	-8754
▁Бізге	-8755
»)	-8756
▁жүре	-8757
▁шайқас	-8758
дылығы	-8759
▁Төрағ	-8760
▁долларға	-8761
▁компью	-8762
▁төлемдер	-8763
▁әуежай	-8764
▁құрамындағы	-8765
▁Энерг	-8766
▁ашылу	-8767
▁грек	-8768
▁комиссиясының	-8769
▁бостандығынан	-8770
▁Автом	-8771
▁құндылықтар	-8772
▁Ch	-8773
▁зәр	-8774
▁өзбек	-8775
▁Ex	-8776
▁филиалының	-8777
▁Кім	-8778
▁Атал	-8779
▁жоспарлан	-8780
▁Австр	-8781
▁мәселеге	-8782
ендіру	-8783
▁ойларын	-8784
▁келісімге	-8785
▁сценарий	-8786
▁болмасын	-8787
дария	-8788
▁Сарап	-8789
оты	-8790
▁Әскери	-8791
▁түсініп	-8792
▁to	-8793
ВИ	-8794
▁мәжіліс	-8795
гіштік	-8796
▁Дұрыс	-8797
▁мәзір	-8798
▁перспектив	-8799
▁жүргізілетін	-8800
тілді	-8801
ER	-8802
▁қолданылуы	-8803
▁саналатын	-8804
▁Жақында	-8805
▁сұлтан	-8806
▁Жібек	-8807
▁жұмыртқа	-8808
▁Тест	-8809
▁сұрайды	-8810
ейк	-8811
ly	-8812
▁келтіреді	-8813
▁кос	-8814
▁жүкті	-8815
чер	-8816
▁Sh	-8817
▁бағытында	-8818
▁МӘ	-8819
▁қарақ	-8820
▁сайтына	-8821
▁мақсатта	-8822
IN	-8823
▁сүйіспеншілік	-8824
▁дипломат	-8825
ктикалық	-8826
▁жүл	-8827
▁Балалардың	-8828
иса	-8829
аторлар	-8830
▁жаға	-8831
▁ұсынамыз	-8832
▁Еуразиялық	-8833
▁атаулы	-8834
Сер	-8835
▁Ұр	-8836
▁жеңіс	-8837
▁тартыл	-8838
▁сайыс	-8839
позиция	-8840
қып	-8841
▁анализ	-8842
альные	-8843
▁Сосын	-8844
▁темекі	-8845
▁банкі	-8846
▁хад	-8847
ДЫҢ	-8848
▁бүлдір	-8849
▁Ду	-8850
▁Kazakh	-8851
шілес	-8852
ҚР	-8853
▁қысқы	-8854
▁иг	-8855
▁стил	-8856
беркул	-8857
урен	-8858
елендіру	-8859
▁қалыптасу	-8860
икасын	-8861
▁Бақытжан	-8862
▁дамиды	-8863
індей	-8864
▁профил	-8865
идің	-8866
▁қуанышты	-8867
бабы	-8868
▁қозғау	-8869
▁орындық	-8870
▁қосыңыз	-8871
▁Өт	-8872
▁қоюға	-8873
▁шикізат	-8874
▁мұғалімнің	-8875
Өнер	-8876
▁әдістемесі	-8877
леген	-8878
▁шө	-8879
▁келдің	-8880
дікке	-8881
▁боз	-8882
роц	-8883
▁академиясының	-8884
▁Тег	-8885
строномия	-8886
▁туындайды	-8887
▁құтыл	-8888
▁Рим	-8889
▁адвок	-8890
▁жазуға	-8891
меді	-8892
▁тастаған	-8893
▁температура	-8894
▁ұйымдарының	-8895
еля	-8896
▁отыз	-8897
дастық	-8898
▁құрылысын	-8899
▁бару	-8900
▁шоқ	-8901
▁концент	-8902
▁коэффици	-8903
▁көтерілген	-8904
лылық	-8905
кеш	-8906
▁халықтық	-8907
▁Қажет	-8908
иск	-8909
▁Берілген	-8910
▁Ақша	-8911
▁дизай	-8912
▁Ерте	-8913
▁министрлік	-8914
шылығының	-8915
▁әлеумет	-8916
▁Пан	-8917
▁алушылар	-8918
▁кедендік	-8919
▁алмастыр	-8920
▁қарсылық	-8921
▁цифрлық	-8922
▁карточ	-8923
▁таңдай	-8924
▁Түрік	-8925
қаның	-8926
▁таңб	-8927
▁мемор	-8928
▁саңырауқұл	-8929
▁Ұзақ	-8930
икая	-8931
▁Сов	-8932
▁атам	-8933
▁қолмен	-8934
иді	-8935
ников	-8936
лықтар	-8937
▁Алдымен	-8938
мызға	-8939
--	-8940
Тол	-8941
▁Әкімшілік	-8942
utnik	-8943
▁аудит	-8944
▁эр	-8945
▁Но	-8946
▁желіде	-8947
▁Кіші	-8948
▁Шыңғыс	-8949
▁Тәжікстан	-8950
▁экология	-8951
инский	-8952
▁шақырады	-8953
АРЫ	-8954
our	-8955
баян	-8956
атылыстану	-8957
ініп	-8958
ТР	-8959
атом	-8960
▁Бастапқы	-8961
▁кодексі	-8962
ОС	-8963
▁көріңіз	-8964
▁бесплатно	-8965
уреттер	-8966
▁баспана	-8967
▁тағдыры	-8968
оңғол	-8969
▁қызметтік	-8970
▁Джон	-8971
бірі	-8972
южет	-8973
▁Оқиға	-8974
▁жұл	-8975
▁күнінен	-8976
▁бөледі	-8977
▁Стратег	-8978
▁қаласынан	-8979
гіні	-8980
▁қолданылған	-8981
azaq	-8982
ний	-8983
▁бөлісті	-8984
▁Мақсат	-8985
▁Табиғи	-8986
▁дәрежелі	-8987
▁Тамыз	-8988
▁Өкінішке	-8989
мбебап	-8990
▁Ресми	-8991
▁сигнал	-8992
▁XV	-8993
▁киелі	-8994
фильм	-8995
▁емхан	-8996
▁аталып	-8997
Жар	-8998
итамин	-8999
▁аздап	-9000
▁Ереж	-9001
▁азаматтарды	-9002
▁көшіру	-9003
▁дост	-9004
▁бренд	-9005
улат	-9006
денең	-9007
▁Күз	-9008
керлері	-9009
▁теж	-9010
▁тамызда	-9011
нұр	-9012
▁жақсыл	-9013
▁кіргіз	-9014
▁түрлерінің	-9015
▁өзгереді	-9016
ill	-9017
▁қабылданады	-9018
▁құттықтады	-9019
▁мәңгі	-9020
алдың	-9021
тивтік	-9022
ҚЫ	-9023
▁Келіс	-9024
▁жауынгер	-9025
▁меж	-9026
▁оралған	-9027
▁образование	-9028
are	-9029
▁стратегиясы	-9030
▁En	-9031
дана	-9032
▁Көктем	-9033
▁баяу	-9034
▁Күні	-9035
▁Том	-9036
▁тоқтал	-9037
.»	-9038
сей	-9039
▁үйінің	-9040
▁шақырып	-9041
▁бірігіп	-9042
▁төмендеуі	-9043
▁жарн	-9044
иссия	-9045
▁Саяси	-9046
▁болғаннан	-9047
еледі	-9048
▁кил	-9049
▁ілім	-9050
▁желтоқсандағы	-9051
▁пунк	-9052
▁Ar	-9053
▁дәп	-9054
▁өлеңдер	-9055
бав	-9056
▁шалдық	-9057
▁ұсынылды	-9058
син	-9059
▁айналысады	-9060
▁жылдамдық	-9061
▁дүниетан	-9062
▁Солардың	-9063
▁пайдаланған	-9064
▁Ағылшын	-9065
▁қақты	-9066
▁жа	-9067
ube	-9068
▁қарауға	-9069
▁элементтері	-9070
ПУ	-9071
Шығ	-9072
БИ	-9073
арға	-9074
изинг	-9075
▁көңілді	-9076
▁Жау	-9077
▁алдық	-9078
▁қалдырған	-9079
▁талабына	-9080
▁аттест	-9081
▁қайталау	-9082
▁өндірушілер	-9083
▁кете	-9084
▁Әбді	-9085
▁ресурс	-9086
▁Физика	-9087
▁ойнап	-9088
▁тартылған	-9089
▁Tele	-9090
▁платформ	-9091
▁тегіс	-9092
огы	-9093
▁сарапшылар	-9094
▁Аталмыш	-9095
▁Сү	-9096
▁Бағалау	-9097
▁құрған	-9098
▁жұқпалы	-9099
▁Қап	-9100
▁түбегейлі	-9101
етеринария	-9102
еттен	-9103
▁вакцина	-9104
▁менен	-9105
▁Бәр	-9106
амызға	-9107
Те	-9108
▁әкем	-9109
▁Деп	-9110
▁ғылымының	-9111
▁айдың	-9112
▁аумақтар	-9113
▁соқты	-9114
тармағ	-9115
▁алаңында	-9116
▁тұтынушылар	-9117
ОГ	-9118
тамен	-9119
▁Ян	-9120
налы	-9121
▁Жетісу	-9122
▁Қарап	-9123
▁бөлшектер	-9124
te	-9125
▁қолын	-9126
интер	-9127
▁экск	-9128
▁бақылауға	-9129
▁алса	-9130
▁коды	-9131
▁мүсін	-9132
▁Жин	-9133
отер	-9134
Сон	-9135
▁университетінде	-9136
менің	-9137
ней	-9138
▁хор	-9139
▁ваг	-9140
▁Компьютер	-9141
▁қоғамға	-9142
▁Испания	-9143
▁Бөкей	-9144
▁босатыл	-9145
▁қарт	-9146
ыншы	-9147
▁пир	-9148
▁каль	-9149
▁салтын	-9150
▁e	-9151
▁таяқ	-9152
▁үзінді	-9153
▁аударып	-9154
▁патша	-9155
▁мұрағат	-9156
▁сілкін	-9157
ынып	-9158
беркулез	-9159
иғаты	-9160
▁құлап	-9161
▁алаңда	-9162
▁баласының	-9163
шылыққа	-9164
▁жұмыл	-9165
▁Дамыту	-9166
▁ұнат	-9167
▁өңірде	-9168
▁Асан	-9169
▁Медициналық	-9170
▁жинақтау	-9171
▁азаматты	-9172
жин	-9173
▁сәті	-9174
▁соғады	-9175
▁ХІ	-9176
▁басқаша	-9177
▁талабы	-9178
▁қатынасы	-9179
▁литр	-9180
▁туристер	-9181
ссе	-9182
▁урок	-9183
▁орындалады	-9184
іруге	-9185
▁құрылымын	-9186
▁бұйрық	-9187
▁процедур	-9188
▁оқушыларының	-9189
▁кәсіпкерлікті	-9190
▁Күй	-9191
▁тәжірибелік	-9192
▁Нур	-9193
ауына	-9194
▁y	-9195
тамын	-9196
▁қарайтын	-9197
▁Рамазан	-9198
▁экономикасы	-9199
ТЫ	-9200
▁пайым	-9201
▁дамыт	-9202
▁Ежелгі	-9203
измге	-9204
▁көрінетін	-9205
▁дәріс	-9206
▁жұмысшы	-9207
кү	-9208
▁қорғалған	-9209
▁Махамбет	-9210
еджмент	-9211
▁тұлғаларға	-9212
▁әйелдердің	-9213
▁Жаб	-9214
▁жауапкершілігі	-9215
▁өнерінің	-9216
▁материалдарын	-9217
▁қолы	-9218
▁тартады	-9219
▁азаматтың	-9220
▁спортшы	-9221
▁естіген	-9222
▁шілдеде	-9223
▁аралығындағы	-9224
▁қарастырылады	-9225
▁Ағымдағы	-9226
▁сынға	-9227
▁құрамасы	-9228
тов	-9229
тіні	-9230
▁сәттілік	-9231
▁жүйесіндегі	-9232
▁агро	-9233
▁ортада	-9234
▁Қуаныш	-9235
▁әкімшілігі	-9236
▁лауре	-9237
▁Заман	-9238
ашыр	-9239
тұз	-9240
▁мүмкіндіктер	-9241
▁Жәнібек	-9242
▁патриоттық	-9243
Біздің	-9244
▁Ақыр	-9245
▁тәртіппен	-9246
рада	-9247
▁берсін	-9248
▁Лондон	-9249
сыңдар	-9250
▁артқы	-9251
сул	-9252
▁тобына	-9253
▁мәртебесі	-9254
ңгір	-9255
▁дегенмен	-9256
▁Мир	-9257
»:	-9258
▁үстінен	-9259
ления	-9260
▁тәрбиелен	-9261
▁агенттік	-9262
▁мойн	-9263
Сам	-9264
шеш	-9265
▁меншікті	-9266
.[	-9267
тке	-9268
егінен	-9269
▁инфляция	-9270
ысып	-9271
▁тақырыбына	-9272
сенді	-9273
▁нары	-9274
▁тіг	-9275
▁үйден	-9276
▁сәйкест	-9277
▁тартымды	-9278
▁ешбір	-9279
ДАН	-9280
▁куәлік	-9281
лаз	-9282
шаң	-9283
▁АСТАНА	-9284
Атам	-9285
▁шекті	-9286
▁дұр	-9287
▁тексеріп	-9288
▁айы	-9289
▁байқауы	-9290
тәжіриб	-9291
фа	-9292
▁гем	-9293
▁матч	-9294
▁құралдарды	-9295
▁түріндегі	-9296
▁Беларусь	-9297
▁драм	-9298
ТЕ	-9299
ive	-9300
▁сапа	-9301
▁шіркеу	-9302
▁бәріне	-9303
▁деңгейінің	-9304
сімен	-9305
▁ұғымы	-9306
▁өрнек	-9307
▁күйі	-9308
▁биліктің	-9309
ье	-9310
▁Мерек	-9311
▁ішін	-9312
▁тартуға	-9313
▁Өзінің	-9314
▁гр	-9315
▁орындап	-9316
▁жұбай	-9317
ңкер	-9318
дырғыш	-9319
▁Еуразия	-9320
▁баратын	-9321
▁Көрсет	-9322
▁полиг	-9323
▁етпейді	-9324
▁итер	-9325
▁Конкурс	-9326
▁операциялар	-9327
▁бәсекелестік	-9328
▁қылып	-9329
ate	-9330
und	-9331
▁қосады	-9332
▁қосылып	-9333
тінің	-9334
▁дәрумен	-9335
бук	-9336
ели	-9337
жанова	-9338
▁мерзімде	-9339
▁Президенттің	-9340
▁Windows	-9341
▁халқымыздың	-9342
▁созылған	-9343
▁ішіп	-9344
▁бизнесті	-9345
ігінің	-9346
▁Баспасөз	-9347
▁қолма	-9348
▁оқытушы	-9349
▁өндірістің	-9350
▁Сүлеймен	-9351
▁білемін	-9352
▁сүріп	-9353
▁Уикипедия	-9354
▁мамандардың	-9355
▁жатқаны	-9356
Тұр	-9357
дыңыз	-9358
▁Pro	-9359
▁виру	-9360
▁ерікті	-9361
▁түсінігі	-9362
▁жарқыр	-9363
▁жағдайларды	-9364
▁жағдайдың	-9365
▁тіс	-9366
▁Баланың	-9367
▁өзгеріп	-9368
▁алмаймын	-9369
▁асқазан	-9370
улла	-9371
out	-9372
▁акциясы	-9373
▁при	-9374
сайт	-9375
білім	-9376
▁дастар	-9377
ацион	-9378
пол	-9379
▁шебері	-9380
▁құралған	-9381
альді	-9382
▁хош	-9383
ank	-9384
▁дәй	-9385
қалы	-9386
бабының	-9387
▁танысып	-9388
▁өлеңдері	-9389
біл	-9390
▁күзет	-9391
орлық	-9392
hats	-9393
▁сабақта	-9394
осының	-9395
ымыздан	-9396
▁құрылтай	-9397
▁түсірген	-9398
▁Ташкент	-9399
ожа	-9400
▁өзінен	-9401
▁хабарлаған	-9402
▁коопер	-9403
▁географиялық	-9404
арлы	-9405
▁көн	-9406
▁жолындағы	-9407
▁танытып	-9408
▁республик	-9409
▁дара	-9410
▁Курстық	-9411
▁бирж	-9412
▁Тәу	-9413
▁Қауіпсіздік	-9414
тарап	-9415
ырда	-9416
▁бөліміне	-9417
▁жүйелері	-9418
▁сарбаз	-9419
▁одағының	-9420
▁Ескерту	-9421
▁біртұтас	-9422
▁Бәрі	-9423
▁қолөнер	-9424
дібек	-9425
▁төмендеу	-9426
▁Димаш	-9427
▁отырмын	-9428
▁жиһ	-9429
▁жинаған	-9430
▁Ұз	-9431
▁поэзия	-9432
▁қалуы	-9433
▁фл	-9434
▁әркім	-9435
▁консерв	-9436
▁танылған	-9437
▁артты	-9438
▁Си	-9439
▁Төрт	-9440
??	-9441
ағар	-9442
▁ұзақтығы	-9443
▁өнімдерді	-9444
▁Маг	-9445
әлихан	-9446
▁зав	-9447
▁мұрын	-9448
ыңызбен	-9449
▁депозит	-9450
▁табан	-9451
▁тұста	-9452
идж	-9453
▁алаяқ	-9454
юмин	-9455
▁Син	-9456
▁катал	-9457
иямен	-9458
паңыз	-9459
▁байқауға	-9460
▁Шағын	-9461
▁айналымы	-9462
педагог	-9463
▁Мінде	-9464
▁фабр	-9465
иха	-9466
иялы	-9467
wit	-9468
▁жоюға	-9469
▁Сұ	-9470
Ге	-9471
▁меңгерген	-9472
ігін	-9473
данады	-9474
тқа	-9475
▁Моңғол	-9476
▁түнгі	-9477
өзен	-9478
▁ойындары	-9479
▁жатақ	-9480
ian	-9481
▁что	-9482
▁айынан	-9483
▁ағамыз	-9484
▁күйде	-9485
▁Ма	-9486
▁елден	-9487
Мектеп	-9488
▁басымдық	-9489
▁қатысушылардың	-9490
▁бұзылған	-9491
осудар	-9492
▁инженерлік	-9493
лерг	-9494
AT	-9495
▁IV	-9496
▁қағып	-9497
▁қосуға	-9498
▁қоян	-9499
▁кінәлі	-9500
▁Сергей	-9501
▁Сіл	-9502
▁жүйеге	-9503
рамп	-9504
▁күткен	-9505
▁тауарларды	-9506
▁мульт	-9507
▁құстар	-9508
тегжей	-9509
▁пациенттер	-9510
▁Бур	-9511
▁виз	-9512
имов	-9513
▁жүктем	-9514
мені	-9515
▁конкур	-9516
▁жұмыстардың	-9517
▁парақшасында	-9518
▁сапары	-9519
▁Еуропалық	-9520
▁білімнің	-9521
▁егжей	-9522
▁құю	-9523
▁ақуыз	-9524
▁олармен	-9525
▁Кә	-9526
▁шатыр	-9527
▁отырғызу	-9528
каз	-9529
▁өтуге	-9530
▁ресурстарын	-9531
▁директорының	-9532
▁лагер	-9533
▁критерий	-9534
▁биіктік	-9535
▁баяндама	-9536
▁әлсір	-9537
▁дегендей	-9538
▁сізде	-9539
▁түзет	-9540
▁Рыс	-9541
▁Ауыр	-9542
▁маңында	-9543
▁бағдарламалары	-9544
сарин	-9545
▁кеші	-9546
Кон	-9547
▁органның	-9548
▁Әңгім	-9549
елерінде	-9550
оне	-9551
▁банктердің	-9552
▁көлемді	-9553
стаф	-9554
ход	-9555
ғаю	-9556
▁Елбас	-9557
▁Дер	-9558
▁күндік	-9559
вит	-9560
▁сіздерге	-9561
▁кірістер	-9562
▁жастары	-9563
▁брон	-9564
екциялық	-9565
IX	-9566
▁нәтижесін	-9567
▁потен	-9568
▁кірді	-9569
▁тірек	-9570
ішкен	-9571
▁тапсырманы	-9572
ауыты	-9573
▁пов	-9574
▁Медицина	-9575
арқа	-9576
▁жасаңыз	-9577
▁Тұрақты	-9578
▁Зар	-9579
▁талаптары	-9580
рок	-9581
▁ұрпақтың	-9582
▁модел	-9583
▁өмірден	-9584
▁жақсартуға	-9585
▁алқап	-9586
▁заряд	-9587
▁жылмен	-9588
▁тағылым	-9589
▁жоспарланып	-9590
▁икемді	-9591
▁ақиқат	-9592
▁басқарған	-9593
▁саус	-9594
ософия	-9595
▁Жез	-9596
▁айтқандай	-9597
▁пікірі	-9598
▁Мик	-9599
айдың	-9600
ғаз	-9601
▁иеленді	-9602
▁бетімен	-9603
▁штаб	-9604
▁қайтару	-9605
▁әні	-9606
тейнер	-9607
▁мағынасын	-9608
енттік	-9609
гелді	-9610
▁субсидия	-9611
▁ережесі	-9612
▁қарында	-9613
талас	-9614
▁шығуы	-9615
▁Қорғаныс	-9616
▁манс	-9617
▁жолдың	-9618
▁беремін	-9619
▁шығарылады	-9620
▁Де	-9621
▁Шәк	-9622
▁мүлікті	-9623
▁NUR	-9624
АТЫ	-9625
▁Фото	-9626
▁хабарлауынша	-9627
ақтарға	-9628
▁статистика	-9629
▁ақпанда	-9630
▁барлау	-9631
▁практика	-9632
▁базасында	-9633
аров	-9634
▁эстетикалық	-9635
▁өнеркәсібі	-9636
▁аяз	-9637
ББ	-9638
▁сезімін	-9639
ауды	-9640
▁үйлесімді	-9641
ют	-9642
▁сабақтың	-9643
▁работа	-9644
▁кәр	-9645
▁архе	-9646
▁ойымша	-9647
▁ауылда	-9648
▁транз	-9649
▁канал	-9650
▁магнит	-9651
▁iP	-9652
атыңыз	-9653
ғыңыз	-9654
▁года	-9655
oft	-9656
сап	-9657
▁киіз	-9658
▁сипаттама	-9659
▁клетк	-9660
▁заттың	-9661
▁Электрондық	-9662
▁тапсыру	-9663
стен	-9664
▁жылында	-9665
▁Новости	-9666
▁Наз	-9667
ындығын	-9668
▁Талдықорған	-9669
▁инновация	-9670
▁жүрегі	-9671
▁импорт	-9672
▁майы	-9673
aly	-9674
▁ескеру	-9675
ысынан	-9676
Үздік	-9677
Хабар	-9678
▁қызды	-9679
▁жағдайлары	-9680
▁ереже	-9681
▁KZ	-9682
▁енеді	-9683
▁түзу	-9684
▁оңтайлы	-9685
▁Раб	-9686
▁пайдалануды	-9687
▁жетім	-9688
▁назарын	-9689
▁қорш	-9690
▁қорыту	-9691
▁анықтайтын	-9692
алия	-9693
Қор	-9694
▁қарастырады	-9695
▁берушінің	-9696
▁ош	-9697
гид	-9698
хмет	-9699
▁көрдім	-9700
қалық	-9701
▁назарына	-9702
▁Ев	-9703
▁басшы	-9704
▁санитар	-9705
▁өңірлер	-9706
▁Алмат	-9707
▁Под	-9708
ограмм	-9709
▁Қыт	-9710
▁кадастрі	-9711
▁берсе	-9712
▁түсірілген	-9713
Дос	-9714
▁механикалық	-9715
▁жәрм	-9716
▁шаңырақ	-9717
меу	-9718
▁қызметшілер	-9719
▁әмбебап	-9720
▁баласын	-9721
▁Бюджет	-9722
▁басындағы	-9723
қам	-9724
батты	-9725
▁ойлаған	-9726
авр	-9727
қалар	-9728
▁брифинг	-9729
▁табиғаты	-9730
▁абзал	-9731
▁мәселелердің	-9732
▁инженер	-9733
▁Нақты	-9734
▁нәтижелерін	-9735
▁кірп	-9736
ИЗ	-9737
▁қатысатын	-9738
▁Түркі	-9739
▁білесің	-9740
▁лекс	-9741
▁атады	-9742
пақшы	-9743
▁талантты	-9744
▁Рухани	-9745
▁мектебінде	-9746
▁Химия	-9747
▁аяқталады	-9748
▁Бізде	-9749
▁күшейт	-9750
▁Көң	-9751
▁интеграция	-9752
зайыпты	-9753
▁бюджетке	-9754
▁өсімдіктердің	-9755
байтын	-9756
▁вы	-9757
орттық	-9758
▁түсінуге	-9759
▁америкалық	-9760
струк	-9761
ттерді	-9762
▁жүрді	-9763
▁нарығы	-9764
▁несиелік	-9765
▁туылған	-9766
▁Поль	-9767
▁Иль	-9768
▁Тексер	-9769
▁әріптестік	-9770
▁өлген	-9771
ғылықты	-9772
▁жолына	-9773
▁зауыты	-9774
▁казакша	-9775
▁қабырға	-9776
тандырылған	-9777
▁сір	-9778
▁Атам	-9779
▁нәрест	-9780
▁қанағаттандыру	-9781
Ана	-9782
▁тыңдап	-9783
▁ұтымды	-9784
ақтарының	-9785
енин	-9786
▁болыңыз	-9787
▁сыртқа	-9788
▁барын	-9789
▁қызу	-9790
фил	-9791
▁сотталған	-9792
▁ОҚО	-9793
▁ист	-9794
▁комиссияның	-9795
.),	-9796
▁әкеп	-9797
▁зерттеуге	-9798
инат	-9799
андум	-9800
▁Әлім	-9801
Электр	-9802
Жол	-9803
Ту	-9804
▁еңбектері	-9805
▁География	-9806
▁Андр	-9807
▁билеу	-9808
балалы	-9809
▁бақылауды	-9810
едиция	-9811
▁Apple	-9812
▁бю	-9813
▁келтіруге	-9814
▁фактілер	-9815
▁туып	-9816
▁Иса	-9817
▁көтеріл	-9818
Егер	-9819
фото	-9820
▁ұйымдары	-9821
▁Айдар	-9822
▁орындалуы	-9823
▁Stan	-9824
▁Қи	-9825
салыс	-9826
▁фоль	-9827
Еңбек	-9828
▁одағы	-9829
▁Сауда	-9830
▁пәндер	-9831
Жыл	-9832
▁тоң	-9833
▁гигиен	-9834
▁жеңімпазы	-9835
▁студенті	-9836
▁аударған	-9837
▁кәсіпорындардың	-9838
sp	-9839
▁бермейтін	-9840
▁диаметр	-9841
▁Білімділік	-9842
▁жазыл	-9843
▁өтірік	-9844
▁кешке	-9845
▁қатынастары	-9846
Ком	-9847
▁қалса	-9848
▁горм	-9849
▁қоғамы	-9850
▁Техникалық	-9851
▁комментарий	-9852
▁МЕН	-9853
▁ҚХ	-9854
▁кезі	-9855
амызда	-9856
▁әзірге	-9857
диев	-9858
▁һ	-9859
▁салынатын	-9860
елл	-9861
▁депутаттары	-9862
▁жұмсау	-9863
▁қаладағы	-9864
au	-9865
▁кәсіподақ	-9866
▁Шер	-9867
▁спортшылар	-9868
▁жүйені	-9869
App	-9870
▁өзг	-9871
▁сызық	-9872
▁Кур	-9873
▁мәселесіне	-9874
елден	-9875
▁кафедрасы	-9876
истем	-9877
раж	-9878
келкі	-9879
▁салалар	-9880
елейтін	-9881
▁кесір	-9882
аков	-9883
қының	-9884
▁сипаттағы	-9885
раг	-9886
▁сыл	-9887
Математика	-9888
▁көтеріліп	-9889
kaz	-9890
▁Ибра	-9891
▁балалық	-9892
▁алкоголь	-9893
▁шығуға	-9894
▁ашылып	-9895
▁ақыны	-9896
▁кешкі	-9897
▁түсіне	-9898
▁ойыншық	-9899
▁мәселенің	-9900
▁ипотек	-9901
▁поли	-9902
ень	-9903
▁Тұрсын	-9904
▁ұрып	-9905
▁ластан	-9906
▁ғаш	-9907
▁Еркін	-9908
▁Халықтың	-9909
▁рәсімі	-9910
▁табысы	-9911
▁жалп	-9912
▁үміткер	-9913
▁салқын	-9914
▁қажеттілігін	-9915
▁көрсеткіштер	-9916
игі	-9917
▁науқан	-9918
▁базалық	-9919
андар	-9920
ись	-9921
▁қамауға	-9922
▁улы	-9923
▁КММ	-9924
▁ауданның	-9925
▁кандидаты	-9926
тасып	-9927
▁Мырз	-9928
▁шешімімен	-9929
▁редакторы	-9930
▁Басқарма	-9931
▁орындарына	-9932
зел	-9933
▁рубл	-9934
▁Үкіметі	-9935
int	-9936
▁болыпты	-9937
Эк	-9938
▁жүктілік	-9939
▁Айнал	-9940
▁жазылып	-9941
▁күдікті	-9942
▁мәртебесін	-9943
▁асыра	-9944
Назарбаевтың	-9945
▁шілдедегі	-9946
▁облыста	-9947
деме	-9948
пікір	-9949
мелі	-9950
▁көтеріліс	-9951
шаны	-9952
▁сезімтал	-9953
orm	-9954
▁сөйлеп	-9955
▁Com	-9956
▁Хам	-9957
▁корпу	-9958
▁қоспағанда	-9959
нақ	-9960
▁сараптам	-9961
▁максим	-9962
▁жүктеп	-9963
Мұнай	-9964
▁құтты	-9965
▁жылжымайтын	-9966
▁Жүргізуші	-9967
▁стандартты	-9968
▁өкпе	-9969
кенің	-9970
▁Көлемі	-9971
▁тізімін	-9972
▁заңнамалық	-9973
▁ұшақ	-9974
▁медицин	-9975
▁қоғамының	-9976
___	-9977
witter	-9978
▁жоспарлануда	-9979
исі	-9980
▁терм	-9981
ұлттық	-9982
Йорк	-9983
▁адамдармен	-9984
▁кейіннен	-9985
▁қин	-9986
▁Балқаш	-9987
▁Telegram	-9988
▁жазылады	-9989
▁Аш	-9990
▁Тим	-9991
▁жылдардың	-9992
▁жанынан	-9993
▁алғаннан	-9994
▁пайдал	-9995
▁отырғанын	-9996
▁Уч	-9997
▁ою	-9998
ұлу	-9999
шісінің	-10000
еч	-10001
▁интерактивті	-10002
▁басқалар	-10003
▁қайшы	-10004
▁қорап	-10005
Әр	-10006
ox	-10007
▁қолбас	-10008
▁хабарландыру	-10009
▁Мекен	-10010
▁олардан	-10011
▁соты	-10012
аурыз	-10013
▁Түсін	-10014
▁Қайта	-10015
▁мақтаныш	-10016
▁Төре	-10017
▁саладағы	-10018
▁төлеуге	-10019
разил	-10020
▁жігер	-10021
▁жоғалып	-10022
▁анам	-10023
▁орынбасар	-10024
▁оқытушысы	-10025
▁қиындықтар	-10026
▁ІІМ	-10027
▁Екеу	-10028
Әуезов	-10029
▁жолдау	-10030
▁стацион	-10031
▁мүдделі	-10032
▁болдық	-10033
ятельности	-10034
айымы	-10035
▁санкция	-10036
▁Шай	-10037
▁Коронавирус	-10038
▁Арх	-10039
▁Жек	-10040
▁Сәкен	-10041
ағыл	-10042
▁қабылдай	-10043
▁жарыстар	-10044
▁доц	-10045
▁сағын	-10046
▁тарта	-10047
▁консуль	-10048
▁неке	-10049
▁Никол	-10050
▁алмаймыз	-10051
Сол	-10052
▁төңкер	-10053
▁БОЛ	-10054
озғал	-10055
▁кешірім	-10056
▁Жиын	-10057
ьев	-10058
имент	-10059
▁ұжымы	-10060
омыш	-10061
▁сапасына	-10062
ям	-10063
▁Ад	-10064
▁спир	-10065
AL	-10066
▁Бейбіт	-10067
▁дәрігері	-10068
▁монопол	-10069
▁қалаға	-10070
▁өтуі	-10071
▁Глав	-10072
▁кескін	-10073
▁естіп	-10074
▁Друг	-10075
▁ауылға	-10076
тауы	-10077
▁өткізіліп	-10078
▁әдісін	-10079
еулер	-10080
▁ғалымдардың	-10081
▁ұсынып	-10082
▁көлемінің	-10083
ификация	-10084
▁босату	-10085
▁атып	-10086
▁таныту	-10087
▁құжаттардың	-10088
▁ша	-10089
▁қалыптасуына	-10090
▁қозғалтқыш	-10091
және	-10092
ымсыз	-10093
▁жұмбақ	-10094
▁Whats	-10095
▁отбасына	-10096
цияның	-10097
етіні	-10098
▁балалы	-10099
▁келтіріп	-10100
▁құдір	-10101
▁үлест	-10102
▁Ауру	-10103
▁тудыру	-10104
Информатика	-10105
▁Sputnik	-10106
орданың	-10107
▁қауымдастық	-10108
▁скачать	-10109
▁мәдениетінің	-10110
▁қолайсыз	-10111
▁уақыттан	-10112
▁Шу	-10113
▁бөг	-10114
▁әрекеттес	-10115
омбылық	-10116
▁қолданатын	-10117
▁төмендегідей	-10118
▁сабыр	-10119
▁тәсілдерін	-10120
▁бөлуге	-10121
▁тәжірибесін	-10122
▁абс	-10123
▁дән	-10124
қасын	-10125
▁сыйым	-10126
▁қашықтықта	-10127
▁рад	-10128
▁көрініп	-10129
ток	-10130
▁күнә	-10131
▁Зей	-10132
▁Естер	-10133
Ұлттық	-10134
▁Ондай	-10135
▁белсенділігін	-10136
▁күтп	-10137
▁әуен	-10138
▁сертификат	-10139
▁асатын	-10140
▁құрамын	-10141
▁ю	-10142
▁съез	-10143
▁Өрт	-10144
▁Иван	-10145
▁жанашыр	-10146
▁сатыс	-10147
▁АТ	-10148
▁Бизнес	-10149
▁Жанар	-10150
▁көріністер	-10151
▁Отбасы	-10152
Балалар	-10153
бекұлы	-10154
▁Фар	-10155
▁бағытындағы	-10156
новы	-10157
▁тәрбиелік	-10158
АШ	-10159
▁денсаулығын	-10160
ІНІҢ	-10161
▁Ир	-10162
▁маңындағы	-10163
▁көші	-10164
▁тұсында	-10165
ельді	-10166
▁ұжымдық	-10167
▁атына	-10168
▁өзіміз	-10169
▁менеджмент	-10170
▁көшпелі	-10171
цар	-10172
▁Табиғат	-10173
▁болатыны	-10174
ish	-10175
ass	-10176
▁айтамыз	-10177
талуы	-10178
Нұрлы	-10179
▁сөзінше	-10180
▁ауылдың	-10181
":	-10182
діреді	-10183
▁елдерінде	-10184
ғаннан	-10185
▁Жапония	-10186
▁РК	-10187
▁атсалыс	-10188
▁қазына	-10189
ЦИЯ	-10190
▁ҚК	-10191
ome	-10192
тапсыр	-10193
▁модуль	-10194
▁көзқарасы	-10195
▁метал	-10196
▁став	-10197
▁ни	-10198
▁Стан	-10199
▁мекенжай	-10200
шин	-10201
▁түйм	-10202
▁тая	-10203
▁көйлек	-10204
сол	-10205
▁дайындап	-10206
▁кәсі	-10207
▁бұйымдар	-10208
▁себебін	-10209
теуір	-10210
.(	-10211
ттың	-10212
сауық	-10213
▁айтылып	-10214
kk	-10215
▁өндіруші	-10216
▁мақта	-10217
▁талпын	-10218
▁құрама	-10219
▁есебімен	-10220
▁қышқылы	-10221
Ос	-10222
ебер	-10223
▁этникалық	-10224
▁салатын	-10225
▁революция	-10226
▁Қалған	-10227
▁үгі	-10228
шықты	-10229
▁Пә	-10230
мағамбетов	-10231
▁сосын	-10232
▁мамандарды	-10233
end	-10234
▁кезеңге	-10235
▁құрметіне	-10236
▁тренинг	-10237
▁Одағының	-10238
▁көбейіп	-10239
▁қаулы	-10240
stana	-10241
▁Сайлау	-10242
▁табыстар	-10243
ебаев	-10244
▁клубы	-10245
діктің	-10246
▁қаһар	-10247
▁Осын	-10248
▁көлденең	-10249
itle	-10250
тәрбие	-10251
▁ойлар	-10252
▁сынап	-10253
▁оян	-10254
▁кездест	-10255
▁статистикалық	-10256
▁қозғалы	-10257
ҰМ	-10258
оэ	-10259
▁талаптарды	-10260
Жалпы	-10261
▁істің	-10262
Ас	-10263
тоб	-10264
▁еден	-10265
гип	-10266
▁Оспан	-10267
▁есеппен	-10268
▁етуді	-10269
төб	-10270
әлеуметтік	-10271
▁ондаған	-10272
ылмай	-10273
▁талаптарға	-10274
▁Жедел	-10275
▁жүректен	-10276
▁Қағ	-10277
▁қағи	-10278
мол	-10279
▁американдық	-10280
▁шыдам	-10281
үкен	-10282
▁Дом	-10283
▁сандар	-10284
далып	-10285
Тәуел	-10286
лігінде	-10287
▁метрге	-10288
ілуін	-10289
▁Салтан	-10290
▁кәдімгі	-10291
▁сыйақы	-10292
аларымыз	-10293
▁пайыздық	-10294
▁Шол	-10295
▁пайдаланылатын	-10296
▁оқиғасы	-10297
▁уль	-10298
▁смарт	-10299
лермен	-10300
▁қорғайды	-10301
ганы	-10302
▁патш	-10303
▁концеп	-10304
ши	-10305
▁сыйлығының	-10306
▁суда	-10307
гіру	-10308
ice	-10309
▁отар	-10310
▁Былтыр	-10311
▁ару	-10312
мақшы	-10313
дағыдай	-10314
▁Трамп	-10315
ауда	-10316
лана	-10317
▁бояу	-10318
▁Путин	-10319
▁шаруашылығының	-10320
▁сиқыр	-10321
▁күрдел	-10322
▁Ыбыр	-10323
▁дауы	-10324
▁қорға	-10325
▁Құрыл	-10326
▁композитор	-10327
руз	-10328
▁кезеңдері	-10329
▁аян	-10330
▁отбасында	-10331
▁Талғат	-10332
▁алушының	-10333
лон	-10334
▁жүргенде	-10335
▁жалғасын	-10336
▁келб	-10337
▁шығарылды	-10338
таймын	-10339
қарсы	-10340
құлық	-10341
▁ЭКСПО	-10342
▁санаты	-10343
▁жағын	-10344
АК	-10345
▁Ақтөбеде	-10346
▁тетік	-10347
▁қалатын	-10348
еттерінің	-10349
▁аурулардың	-10350
▁жауапкершілікке	-10351
▁қы	-10352
әззат	-10353
▁өтінім	-10354
▁ғасырдағы	-10355
▁соңы	-10356
▁басшыларының	-10357
осс	-10358
▁категор	-10359
▁жетістіктері	-10360
▁табиғатты	-10361
көп	-10362
▁На	-10363
ІП	-10364
▁көмектесу	-10365
▁арғы	-10366
▁ред	-10367
▁ересектер	-10368
▁беруде	-10369
▁нұсқаулық	-10370
▁процесінің	-10371
▁Tr	-10372
▁марш	-10373
▁атлет	-10374
жаттығу	-10375
▁сөзге	-10376
кор	-10377
▁жанұя	-10378
▁ережесін	-10379
▁драма	-10380
▁Бу	-10381
ДЫҚ	-10382
ушыға	-10383
▁аяғында	-10384
▁ұнады	-10385
▁ғимарат	-10386
▁Ром	-10387
етіндей	-10388
імсіз	-10389
▁аулау	-10390
ытқыш	-10391
▁астындағы	-10392
ини	-10393
▁ad	-10394
▁өткізгіш	-10395
греди	-10396
▁сақтайды	-10397
▁журналы	-10398
▁тағайындалған	-10399
▁салыңыз	-10400
берн	-10401
шөп	-10402
▁түрлеріне	-10403
▁Ph	-10404
▁ғимараттар	-10405
▁сың	-10406
▁алуда	-10407
▁әкелді	-10408
▁Ресейге	-10409
ушыларды	-10410
ологтар	-10411
▁сарай	-10412
▁Ермек	-10413
▁энергетикалық	-10414
клор	-10415
▁ірік	-10416
▁кісінің	-10417
ғұл	-10418
▁шараға	-10419
Бүгін	-10420
▁Re	-10421
age	-10422
байдың	-10423
ыңда	-10424
▁контр	-10425
▁идеясы	-10426
▁философиялық	-10427
▁сүю	-10428
раиль	-10429
▁Пайдалы	-10430
▁ынтымақтас	-10431
▁денесі	-10432
▁орталықтары	-10433
▁ұйымдастырған	-10434
▁бак	-10435
ысыз	-10436
News	-10437
▁туындайтын	-10438
▁домбыра	-10439
ne	-10440
▁Otan	-10441
алыпты	-10442
▁ғалымдары	-10443
актор	-10444
▁дәнек	-10445
тағ	-10446
▁стандарттау	-10447
▁теп	-10448
▁жапырақ	-10449
иттік	-10450
▁қис	-10451
▁Өтін	-10452
▁әрекетін	-10453
▁объект	-10454
▁жө	-10455
▁Тік	-10456
▁күндер	-10457
▁мақсатын	-10458
кий	-10459
▁артқан	-10460
▁жұмысшылар	-10461
▁түсіндіреді	-10462
▁Тен	-10463
қазған	-10464
▁персон	-10465
банк	-10466
▁тыныштық	-10467
▁толып	-10468
▁күріш	-10469
▁ресурстарды	-10470
▁мырза	-10471
▁Ұлыбритания	-10472
▁басқаруға	-10473
▁бетіндегі	-10474
▁құрылады	-10475
▁мыналар	-10476
люз	-10477
▁кездескен	-10478
▁жартыс	-10479
АЖ	-10480
▁ведомств	-10481
стігі	-10482
▁мамандықтар	-10483
▁Біріккен	-10484
алығының	-10485
▁ант	-10486
▁ортасы	-10487
ометриялық	-10488
▁өтем	-10489
▁тұрса	-10490
шілігіне	-10491
▁қызметкерлеріне	-10492
▁Мақаланың	-10493
▁хаттам	-10494
ивтік	-10495
▁азап	-10496
▁шығармалары	-10497
▁ұқсайды	-10498
▁ананың	-10499
лікке	-10500
▁білмейтін	-10501
елді	-10502
дамыз	-10503
гіміз	-10504
▁синтез	-10505
▁үміттен	-10506
Казах	-10507
▁Вас	-10508
жеткен	-10509
ңқыр	-10510
▁белсене	-10511
▁Бейне	-10512
▁атаған	-10513
▁кетсе	-10514
иминал	-10515
▁аурухана	-10516
▁инвестициялар	-10517
▁функциясы	-10518
▁Сәт	-10519
▁ҚАЛ	-10520
▁Пал	-10521
▁РФ	-10522
түстігінде	-10523
▁экономиканы	-10524
▁тұруға	-10525
▁лю	-10526
▁суреті	-10527
▁Париж	-10528
▁сезімі	-10529
▁есептейді	-10530
ust	-10531
▁классы	-10532
▁ван	-10533
▁Әбдір	-10534
▁стандарттар	-10535
теңге	-10536
▁литер	-10537
▁диет	-10538
▁элемент	-10539
▁сағаттан	-10540
▁мит	-10541
әлкім	-10542
▁етістік	-10543
юн	-10544
▁сөм	-10545
▁соғып	-10546
▁үкіметтік	-10547
Химия	-10548
▁Құрама	-10549
▁өзект	-10550
▁басшылыққа	-10551
илин	-10552
▁мемлекетке	-10553
▁Ру	-10554
▁әрқайсысы	-10555
Физика	-10556
▁диф	-10557
▁маңдай	-10558
ұрық	-10559
Алаш	-10560
▁жануарлардың	-10561
▁өзгертуге	-10562
▁мерзімін	-10563
▁ұлғайту	-10564
▁образованиеД	-10565
кредит	-10566
▁Ерт	-10567
▁Ауа	-10568
▁өнерін	-10569
▁Гр	-10570
▁әлемді	-10571
орф	-10572
▁асқақ	-10573
▁грамм	-10574
▁Mic	-10575
▁диссер	-10576
▁халықтарының	-10577
▁дәлелден	-10578
гіңіз	-10579
▁Педагогика	-10580
▁нүкте	-10581
▁Құс	-10582
▁масса	-10583
▁мынау	-10584
кезең	-10585
▁Атырауда	-10586
▁Тр	-10587
▁иіс	-10588
▁Қытайда	-10589
Ата	-10590
▁Алдын	-10591
▁дененің	-10592
алауға	-10593
▁асық	-10594
▁өкілетті	-10595
▁Баб	-10596
герлері	-10597
▁қоныстан	-10598
бран	-10599
ikip	-10600
▁генерал	-10601
▁оқыт	-10602
▁білмейді	-10603
▁әп	-10604
▁Алл	-10605
▁емдеуге	-10606
бу	-10607
абол	-10608
▁тарихына	-10609
әрекеті	-10610
▁сып	-10611
pr	-10612
▁Сақтандыру	-10613
ғи	-10614
▁марк	-10615
▁соншалықты	-10616
▁жанды	-10617
▁Мағжан	-10618
▁энд	-10619
пады	-10620
▁комиссиясы	-10621
Газ	-10622
▁металлург	-10623
▁Адамдар	-10624
▁кат	-10625
дырық	-10626
▁деңгейлі	-10627
▁жеп	-10628
нис	-10629
▁Парламенті	-10630
▁->	-10631
алту	-10632
▁парас	-10633
▁таңғы	-10634
▁туыстар	-10635
▁зымыр	-10636
▁қолдауға	-10637
▁Мұқағ	-10638
▁пнев	-10639
▁толыққанды	-10640
нәр	-10641
▁Бәй	-10642
▁жарыққа	-10643
▁жүздеген	-10644
▁Әлихан	-10645
ЭО	-10646
▁әңгімелер	-10647
▁атасы	-10648
▁серуен	-10649
▁Ерек	-10650
▁төленетін	-10651
шекей	-10652
▁объекті	-10653
▁Pl	-10654
▁орнының	-10655
▁жоғалту	-10656
▁базасы	-10657
▁салықтық	-10658
▁Қош	-10659
▁контейнер	-10660
ония	-10661
▁өткізілетін	-10662
Биология	-10663
пин	-10664
▁күнгі	-10665
еменшік	-10666
іңішке	-10667
▁сұрып	-10668
▁сауат	-10669
▁берушілер	-10670
еев	-10671
▁жіберілген	-10672
▁фин	-10673
▁Мұқағали	-10674
ikipedia	-10675
ОВА	-10676
title	-10677
▁салалық	-10678
▁теңгенің	-10679
▁бағалайды	-10680
▁Алғаш	-10681
▁Ағаш	-10682
▁ағып	-10683
▁ісінің	-10684
▁Құж	-10685
▁құмар	-10686
▁Кішкен	-10687
▁талант	-10688
▁шалдыққан	-10689
▁Психология	-10690
▁бастамасымен	-10691
От	-10692
ear	-10693
▁әзіл	-10694
▁Дон	-10695
▁септігін	-10696
▁туады	-10697
▁орындалуын	-10698
▁кодексінің	-10699
▁округінің	-10700
сейн	-10701
▁жерлерді	-10702
▁еуропалық	-10703
прав	-10704
▁авторлық	-10705
бастұз	-10706
▁ортасына	-10707
▁мәміл	-10708
Муз	-10709
▁сег	-10710
▁ұзамай	-10711
ңғар	-10712
ғыны	-10713
▁деймін	-10714
сыздар	-10715
▁салқында	-10716
озды	-10717
▁ақындар	-10718
▁Жүз	-10719
▁Ержан	-10720
▁ОҚ	-10721
деліп	-10722
▁Сыз	-10723
▁шығындарды	-10724
▁ҚЫЗ	-10725
▁коммуникация	-10726
▁таңдауға	-10727
▁Шек	-10728
▁әуелі	-10729
▁вок	-10730
▁желісінде	-10731
тарынан	-10732
▁жазылу	-10733
▁фосф	-10734
мұр	-10735
▁қазақтардың	-10736
▁жекеш	-10737
▁жіктел	-10738
▁омырт	-10739
▁боксшы	-10740
▁Теңіз	-10741
▁ғажайып	-10742
▁қоятын	-10743
Үй	-10744
ack	-10745
етербург	-10746
▁Ради	-10747
▁көптеп	-10748
▁жұрттың	-10749
▁қастер	-10750
опат	-10751
▁нәтижелі	-10752
▁байлығы	-10753
▁дәріп	-10754
▁пайызын	-10755
АЛАР	-10756
▁залында	-10757
мыздың	-10758
юминий	-10759
▁сюжет	-10760
▁год	-10761
оя	-10762
▁мөлдір	-10763
ілерді	-10764
▁көтерді	-10765
▁жапырақтары	-10766
▁айналасында	-10767
над	-10768
ІІІ	-10769
▁көмектесетін	-10770
▁қолдап	-10771
oy	-10772
rosoft	-10773
▁re	-10774
▁тарат	-10775
▁кедергілер	-10776
▁саясаттың	-10777
▁неде	-10778
▁стер	-10779
▁Ток	-10780
▁АУ	-10781
▁ҚАР	-10782
▁Хор	-10783
▁дайындауға	-10784
IS	-10785
▁қалдым	-10786
▁Бухгалтерлік	-10787
▁біркелкі	-10788
зомбылық	-10789
▁түтік	-10790
▁куәлан	-10791
арь	-10792
▁неліктен	-10793
Егемен	-10794
▁берілуі	-10795
▁Кам	-10796
▁студенттерге	-10797
▁Виктор	-10798
▁еңбегін	-10799
▁көмекке	-10800
▁қатынастардың	-10801
▁Жайық	-10802
▁бұйрығымен	-10803
▁Ауыз	-10804
Ресей	-10805
тылатын	-10806
аудың	-10807
▁қажеттігін	-10808
месе	-10809
▁Тәжіриб	-10810
▁WhatsApp	-10811
▁шамасы	-10812
▁саяб	-10813
керлерінің	-10814
▁бесінші	-10815
▁көзіне	-10816
алығымен	-10817
▁айларында	-10818
▁жағдайларға	-10819
▁қамты	-10820
▁кетер	-10821
Техн	-10822
РО	-10823
▁Жеті	-10824
▁залал	-10825
▁Az	-10826
пенді	-10827
дануы	-10828
▁пери	-10829
▁Индустр	-10830
▁ТЕ	-10831
кені	-10832
сары	-10833
▁Педагогикалық	-10834
▁нысандары	-10835
▁басқалары	-10836
▁жинақталған	-10837
▁аппаратының	-10838
▁энергетика	-10839
▁қыста	-10840
▁алуына	-10841
▁сері	-10842
▁техникасы	-10843
▁ойшыл	-10844
▁қаған	-10845
▁Қаржылық	-10846
▁жұқа	-10847
кінің	-10848
▁маңыздылығын	-10849
▁пайдаланатын	-10850
▁құлдыр	-10851
▁кәмелетке	-10852
Азам	-10853
▁жазда	-10854
▁ауданына	-10855
▁жемістер	-10856
▁жүн	-10857
▁облысына	-10858
▁тәм	-10859
▁жоғарылау	-10860
▁қалдырды	-10861
▁гал	-10862
▁Форум	-10863
▁әлеуетін	-10864
▁белгіленеді	-10865
▁коллек	-10866
▁жақтан	-10867
иаль	-10868
▁ингреди	-10869
▁тг	-10870
▁жым	-10871
его	-10872
▁қуғын	-10873
теңіз	-10874
Сіз	-10875
імге	-10876
қаған	-10877
▁Kb	-10878
Жақ	-10879
Ақтөбе	-10880
▁ресім	-10881
көк	-10882
абор	-10883
▁ауылындағы	-10884
талатын	-10885
▁бүйір	-10886
▁елшісі	-10887
▁Реферат	-10888
▁Кеңесінің	-10889
▁үлгісін	-10890
▁жолдарының	-10891
іре	-10892
ff	-10893
▁қоректен	-10894
тика	-10895
▁оппозиция	-10896
ышқан	-10897
▁пышақ	-10898
▁артықшылығы	-10899
▁тазалық	-10900
▁құйып	-10901
▁көреміз	-10902
▁суретке	-10903
▁жолының	-10904
▁реттел	-10905
▁солардың	-10906
бін	-10907
▁құрамдас	-10908
▁мекемесінің	-10909
▁мәтінді	-10910
▁Ұсын	-10911
▁Ақсу	-10912
▁жұртшылық	-10913
▁қатынастарды	-10914
▁Дамытушылық	-10915
▁Алғыс	-10916
▁Өзі	-10917
елерден	-10918
▁аударды	-10919
▁емеспін	-10920
▁жоспарлары	-10921
▁ұшу	-10922
отов	-10923
▁теңг	-10924
▁жайылым	-10925
▁Бұлар	-10926
▁тілеймін	-10927
▁үйреніп	-10928
▁графикалық	-10929
▁кезеңдегі	-10930
орта	-10931
▁беделді	-10932
▁көкей	-10933
▁ұқыпты	-10934
▁сүйенсек	-10935
▁депутат	-10936
▁өнімі	-10937
▁диаб	-10938
▁ойы	-10939
▁тоқталды	-10940
айтынын	-10941
▁Бизнесті	-10942
▁өмірінде	-10943
▁ауылшаруашылық	-10944
тельство	-10945
▁Науқас	-10946
▁үйлердің	-10947
▁тоқталып	-10948
▁сабақтас	-10949
▁мақсатына	-10950
▁Қазақстанды	-10951
▁сөзінің	-10952
▁түсінеді	-10953
▁философия	-10954
▁сендер	-10955
▁киіп	-10956
▁курсы	-10957
▁зият	-10958
едегі	-10959
играф	-10960
▁Сібір	-10961
▁театры	-10962
▁жолдама	-10963
▁Мам	-10964
Қара	-10965
▁Кері	-10966
▁Анық	-10967
▁ҰК	-10968
▁сұйықтық	-10969
ицид	-10970
▁ғылымдар	-10971
тамыр	-10972
▁арта	-10973
ld	-10974
▁құрылысына	-10975
▁дәнекер	-10976
▁менші	-10977
▁Есім	-10978
▁түсіндіріп	-10979
▁санап	-10980
▁талшық	-10981
▁мүмкіндігінше	-10982
▁Статистика	-10983
гілдір	-10984
▁хабарламада	-10985
▁талқылады	-10986
▁зертханалық	-10987
▁тұқымды	-10988
▁Кап	-10989
▁супер	-10990
иба	-10991
▁қабаты	-10992
уляр	-10993
▁енгізуге	-10994
▁саясатты	-10995
▁Аудандық	-10996
▁жабылған	-10997
▁Астрономия	-10998
▁құтқару	-10999
пет	-11000
▁болашаққа	-11001
▁автобу	-11002
ипед	-11003
▁маңыздылығы	-11004
▁адр	-11005
▁қауымдастығы	-11006
▁өңірінде	-11007
▁қосынды	-11008
▁ұсталған	-11009
▁Соз	-11010
игация	-11011
▁ауданда	-11012
ышы	-11013
▁деректері	-11014
меші	-11015
▁экспедиция	-11016
шілігімен	-11017
▁жәрдемақы	-11018
▁патриот	-11019
итикалық	-11020
стра	-11021
улятор	-11022
▁тақырыпқа	-11023
▁жиһаз	-11024
▁қорғап	-11025
▁чемпионаты	-11026
обыл	-11027
ердің	-11028
мұхамед	-11029
▁кеңейтілген	-11030
▁Маркетинг	-11031
▁шиелен	-11032
▁капит	-11033
рік	-11034
тасынан	-11035
atty	-11036
▁Назар	-11037
▁компаниялардың	-11038
ықтығы	-11039
▁Twitter	-11040
▁ерекшеліктеріне	-11041
▁орасан	-11042
ирован	-11043
▁көздейді	-11044
▁гүлдер	-11045
▁кеңестің	-11046
алаған	-11047
▁жеңілдету	-11048
▁жеткізілді	-11049
▁қойыңыз	-11050
ial	-11051
тегжейлі	-11052
▁келдім	-11053
▁Азамат	-11054
▁Бақылау	-11055
▁акт	-11056
▁әндер	-11057
▁жалаң	-11058
▁жиналып	-11059
▁деклар	-11060
▁Ми	-11061
▁сүйене	-11062
▁Туризм	-11063
▁хлор	-11064
АЛЫҚТАР	-11065
тациялық	-11066
],	-11067
php	-11068
бірлен	-11069
▁қир	-11070
▁түрме	-11071
▁етуде	-11072
▁БҚО	-11073
▁Шоқан	-11074
География	-11075
елермен	-11076
жөні	-11077
ber	-11078
ушінің	-11079
▁композиция	-11080
▁орысша	-11081
▁төг	-11082
росы	-11083
▁витамин	-11084
анасы	-11085
▁принциптері	-11086
ИД	-11087
▁Түн	-11088
▁Про	-11089
▁жеткізеді	-11090
▁бейнеленген	-11091
басар	-11092
шашын	-11093
президен	-11094
▁аял	-11095
кг	-11096
▁қосылу	-11097
сауи	-11098
▁ретіндегі	-11099
▁роб	-11100
▁әкелуі	-11101
▁қатары	-11102
оспит	-11103
▁көрмеген	-11104
▁елінде	-11105
▁өзіміздің	-11106
▁Бұрынғы	-11107
info	-11108
▁Дайын	-11109
▁сақталып	-11110
▁ені	-11111
▁мемлекеті	-11112
▁аяғына	-11113
▁қоқыс	-11114
▁қаңтардағы	-11115
▁рекорд	-11116
опас	-11117
▁мейрамхан	-11118
▁қайғы	-11119
▁қозғалысының	-11120
ra	-11121
▁ұйымдастырды	-11122
▁операциялық	-11123
аныңыз	-11124
▁Маш	-11125
▁Тең	-11126
▁Күнде	-11127
ца	-11128
асти	-11129
▁Қадыр	-11130
імдерге	-11131
лоб	-11132
▁дида	-11133
▁Эр	-11134
олик	-11135
▁хандығының	-11136
https	-11137
омен	-11138
▁дақ	-11139
сұр	-11140
▁артер	-11141
ry	-11142
яқ	-11143
аушан	-11144
▁Алма	-11145
ублик	-11146
▁ХІХ	-11147
▁айты	-11148
икации	-11149
▁Әйт	-11150
фуллин	-11151
▁режимі	-11152
▁қатал	-11153
▁иісі	-11154
▁осының	-11155
▁тырысты	-11156
▁жобалық	-11157
Атамекен	-11158
ырып	-11159
псих	-11160
▁жастық	-11161
▁емдік	-11162
▁үрдіс	-11163
▁Той	-11164
▁тоқтап	-11165
▁Ни	-11166
▁информатика	-11167
▁жабайы	-11168
▁бекітілді	-11169
▁ТО	-11170
аторлық	-11171
▁БАС	-11172
шысының	-11173
▁салығы	-11174
▁Шығар	-11175
▁Каб	-11176
▁лауреаты	-11177
циология	-11178
▁қажы	-11179
▁жалғау	-11180
▁көтерілді	-11181
ЫНА	-11182
атарея	-11183
ЭС	-11184
атикалық	-11185
▁бағытын	-11186
▁бұзыл	-11187
▁Іле	-11188
овский	-11189
▁атқарылған	-11190
▁жетісті	-11191
▁Құдайберген	-11192
▁үнемдеу	-11193
▁қим	-11194
▁іздестіру	-11195
▁әмір	-11196
Каз	-11197
▁Маз	-11198
▁Конституциялық	-11199
▁үйірм	-11200
імнен	-11201
▁Мені	-11202
▁қарулы	-11203
▁туберкулез	-11204
▁Қожа	-11205
▁Берік	-11206
▁бағам	-11207
▁дәрежесін	-11208
▁конституциялық	-11209
ларынан	-11210
▁Шәкәрім	-11211
▁шт	-11212
кестр	-11213
РУ	-11214
▁төмендейді	-11215
▁күресу	-11216
▁Алекс	-11217
▁айқындау	-11218
▁Un	-11219
керлерді	-11220
▁өмірді	-11221
▁күнінде	-11222
▁шабыт	-11223
▁жабу	-11224
▁тәркіл	-11225
▁ойлам	-11226
▁тартылды	-11227
▁Соң	-11228
▁олай	-11229
Сә	-11230
▁Техника	-11231
▁Бұр	-11232
▁пияз	-11233
▁кезеңіне	-11234
▁Моск	-11235
▁кеңестік	-11236
▁белгілерін	-11237
ДІҢ	-11238
▁аумағындағы	-11239
▁стар	-11240
щих	-11241
▁қасқыр	-11242
▁тағамдар	-11243
▁Одақ	-11244
алык	-11245
▁сту	-11246
▁офиц	-11247
▁ресурстары	-11248
стория	-11249
▁етілді	-11250
▁Аген	-11251
▁шешіп	-11252
▁екп	-11253
рут	-11254
▁өзені	-11255
▁азая	-11256
▁таныстырды	-11257
▁энергиясы	-11258
▁Үст	-11259
▁бизн	-11260
▁Көркем	-11261
▁бақылап	-11262
▁проблемалар	-11263
ңгімен	-11264
▁Шт	-11265
армацев	-11266
▁нарығының	-11267
▁тауық	-11268
mat	-11269
▁%-	-11270
▁мөлшерінде	-11271
▁пайдаланушылар	-11272
елігі	-11273
▁қысқарту	-11274
▁қуып	-11275
▁мотив	-11276
▁ізгі	-11277
▁көкөніс	-11278
кіні	-11279
▁бағдарламаның	-11280
▁салдары	-11281
▁бейнесін	-11282
ыңызда	-11283
▁жазық	-11284
тығына	-11285
▁крем	-11286
▁қайтарып	-11287
▁бағалай	-11288
▁поп	-11289
▁Жануар	-11290
▁балан	-11291
▁минералды	-11292
▁СО	-11293
▁объективті	-11294
▁аптасына	-11295
▁мүй	-11296
OR	-11297
▁органы	-11298
▁суретін	-11299
гінді	-11300
▁объектісі	-11301
▁коф	-11302
ge	-11303
▁ықшам	-11304
▁түкпір	-11305
▁қызғылт	-11306
▁Хат	-11307
▁жіберіледі	-11308
▁жүзі	-11309
▁отбасын	-11310
ачальные	-11311
▁шырын	-11312
▁түні	-11313
ax	-11314
▁Қарулы	-11315
▁Филология	-11316
▁проп	-11317
▁наз	-11318
бірін	-11319
▁клубының	-11320
▁ҚО	-11321
▁Аяқ	-11322
Ис	-11323
▁рент	-11324
▁ілгер	-11325
тыра	-11326
▁ашылуы	-11327
.;	-11328
▁аймақтың	-11329
▁тақырыбын	-11330
▁еркек	-11331
▁үрдістер	-11332
▁ешкімге	-11333
▁Жолдауында	-11334
▁нысандар	-11335
▁кепілі	-11336
▁көрінді	-11337
▁санына	-11338
▁ардагерлер	-11339
мызда	-11340
▁бастауы	-11341
▁Кәсіпкерлік	-11342
алин	-11343
▁алушылардың	-11344
▁жүгіру	-11345
бау	-11346
▁хром	-11347
▁теңест	-11348
▁орнатуға	-11349
▁арқау	-11350
▁бүлдіршін	-11351
ym	-11352
▁әкелген	-11353
▁Главная	-11354
осом	-11355
▁ұйымдастыруға	-11356
▁нәтижеге	-11357
▁Орман	-11358
▁адас	-11359
▁арам	-11360
▁кездесуі	-11361
Көр	-11362
▁Bl	-11363
кімді	-11364
▁Италия	-11365
шен	-11366
▁лизинг	-11367
▁Фин	-11368
▁жанкүйер	-11369
co	-11370
▁ұсынатын	-11371
▁көрсетуді	-11372
▁шегі	-11373
▁фаз	-11374
”.	-11375
ЛАР	-11376
▁бастамасы	-11377
соци	-11378
▁әшекей	-11379
▁отыра	-11380
▁қазақстандықтар	-11381
мды	-11382
▁бағалауға	-11383
▁әйелдерге	-11384
▁арнаған	-11385
▁Аймақтар	-11386
динг	-11387
,...	-11388
▁сәнді	-11389
ционалды	-11390
ипа	-11391
▁ез	-11392
▁игілігі	-11393
▁бәріміз	-11394
▁келесідей	-11395
▁тапшылығы	-11396
▁лек	-11397
ете	-11398
▁жалпыға	-11399
▁тарихындағы	-11400
▁Қож	-11401
▁Шығармашылық	-11402
▁профессоры	-11403
тылығын	-11404
▁Шұ	-11405
▁ұстауға	-11406
ань	-11407
▁аллерг	-11408
бұлақ	-11409
мауы	-11410
кат	-11411
▁көпбалалы	-11412
НҚ	-11413
▁шенеунік	-11414
▁әнін	-11415
ление	-11416
▁корпорация	-11417
▁ҚазҰУ	-11418
▁қаулысымен	-11419
▁ауди	-11420
теміз	-11421
▁ұнам	-11422
▁көсем	-11423
иттің	-11424
▁жылдарында	-11425
аят	-11426
▁қаражаты	-11427
▁мисс	-11428
▁растайтын	-11429
▁сыныпқа	-11430
▁қауіпсіздікті	-11431
қи	-11432
▁форумы	-11433
▁алп	-11434
▁қолданбалы	-11435
Оң	-11436
▁тәрбиеш	-11437
▁Консп	-11438
▁құрап	-11439
партам	-11440
▁дағдарыс	-11441
▁Сағынтаев	-11442
паса	-11443
▁қасір	-11444
ико	-11445
▁жұма	-11446
▁қағидаларын	-11447
▁Номер	-11448
▁провин	-11449
▁идеология	-11450
Атырау	-11451
гин	-11452
▁Футбол	-11453
▁апт	-11454
▁Жұма	-11455
▁Қарапайым	-11456
▁қабылдам	-11457
yz	-11458
▁аяқтау	-11459
елген	-11460
▁пайдаланудың	-11461
attyq	-11462
▁түсуі	-11463
▁!	-11464
▁мәслихатының	-11465
ковод	-11466
▁Онлайн	-11467
іңде	-11468
▁қалаларында	-11469
▁ғылымның	-11470
▁құйр	-11471
іші	-11472
▁тақырыптар	-11473
▁Қалалық	-11474
▁тігі	-11475
▁жарылыс	-11476
▁энергиясын	-11477
Қазіргі	-11478
огендік	-11479
▁қоймайды	-11480
▁партияның	-11481
▁майлы	-11482
▁алгоритм	-11483
▁бесік	-11484
▁мағлұмат	-11485
▁қондырғылар	-11486
▁Алатау	-11487
▁жігіттің	-11488
▁еңбекті	-11489
ордалық	-11490
стүрлі	-11491
▁проблема	-11492
▁материала	-11493
▁РЕС	-11494
▁орналасуы	-11495
▁оралды	-11496
▁көктемде	-11497
вейцар	-11498
▁Ұқ	-11499
▁мәдениетті	-11500
▁қаламгер	-11501
эл	-11502
▁Төле	-11503
▁тәулігіне	-11504
▁нарықта	-11505
ектес	-11506
тол	-11507
▁тезірек	-11508
▁ойға	-11509
▁жоспарлы	-11510
күл	-11511
дион	-11512
▁кездесулер	-11513
ғынан	-11514
▁бірінен	-11515
▁өміріндегі	-11516
▁соттың	-11517
▁ғұл	-11518
әлиханов	-11519
▁бағдарламаларын	-11520
▁тәжірибелі	-11521
хар	-11522
▁нәрсеге	-11523
▁Вер	-11524
▁жетуге	-11525
▁деректі	-11526
▁дейміз	-11527
нас	-11528
қызмет	-11529
▁Тоқаевтың	-11530
▁болсаң	-11531
▁жыныс	-11532
▁Израиль	-11533
▁мүдделерін	-11534
икациялық	-11535
▁түсініктеме	-11536
▁қаржылан	-11537
act	-11538
▁іздеген	-11539
▁перн	-11540
таса	-11541
дігімен	-11542
▁Транс	-11543
сас	-11544
▁кию	-11545
▁ибн	-11546
езента	-11547
▁өртен	-11548
▁үң	-11549
▁энциклопед	-11550
осипед	-11551
▁іші	-11552
батыс	-11553
▁үйренеді	-11554
▁қайғылы	-11555
▁құндылықтарды	-11556
▁НЕ	-11557
▁x	-11558
▁бағамен	-11559
▁ауырсыну	-11560
отехника	-11561
▁алда	-11562
мак	-11563
▁тұрғанын	-11564
СЫ	-11565
▁қоректік	-11566
▁ынтымақтастықты	-11567
сіреп	-11568
▁құрылуы	-11569
▁факт	-11570
Педагог	-11571
▁арнасы	-11572
лияс	-11573
▁бизнестің	-11574
ON	-11575
▁прод	-11576
▁нарығында	-11577
бірінен	-11578
▁Конференция	-11579
педагогикалық	-11580
▁көңілі	-11581
▁нұқ	-11582
▁Электронды	-11583
▁нұсқасын	-11584
▁Сырдария	-11585
▁at	-11586
▁жемісті	-11587
▁ерлі	-11588
▁ұдайы	-11589
▁факультетінің	-11590
ЛЕК	-11591
▁имп	-11592
▁қып	-11593
▁тәртіпті	-11594
▁лингв	-11595
Қан	-11596
▁байқауының	-11597
мира	-11598
▁Жағ	-11599
▁бұрыннан	-11600
ылмайтын	-11601
кісі	-11602
▁Мейрам	-11603
▁мейірімді	-11604
емей	-11605
▁кітапханасы	-11606
▁корр	-11607
▁шаһар	-11608
▁келтірген	-11609
▁етудің	-11610
▁атағы	-11611
▁ұрпағы	-11612
tern	-11613
▁тәж	-11614
▁індет	-11615
▁ЖАҢАЛЫҚТАР	-11616
лн	-11617
▁Үкіметтің	-11618
▁негіздерін	-11619
▁государ	-11620
▁функционалдық	-11621
▁өзгерістерге	-11622
▁Шарт	-11623
▁дауысты	-11624
▁зияткерлік	-11625
esti	-11626
▁Украин	-11627
▁Мейір	-11628
▁тілдерді	-11629
баға	-11630
▁Мектепке	-11631
▁руковод	-11632
шараларды	-11633
ический	-11634
▁қатыса	-11635
▁портф	-11636
▁екіге	-11637
▁Халқ	-11638
▁докумен	-11639
▁сой	-11640
▁есептей	-11641
▁біріктіру	-11642
▁қоғамды	-11643
▁Роб	-11644
вин	-11645
піз	-11646
▁ауытқ	-11647
▁қатысуы	-11648
▁үнді	-11649
▁колледжі	-11650
▁Студенттер	-11651
ием	-11652
ant	-11653
▁өткер	-11654
отикалық	-11655
▁фигур	-11656
▁тыл	-11657
▁артында	-11658
▁елін	-11659
▁қағидалары	-11660
▁ием	-11661
ілсе	-11662
оды	-11663
▁түсіндірме	-11664
гірім	-11665
▁комбин	-11666
ызы	-11667
мекен	-11668
▁қорғайтын	-11669
▁бүтін	-11670
ғас	-11671
▁бассейн	-11672
SBN	-11673
▁Шах	-11674
без	-11675
▁топтары	-11676
▁Гру	-11677
▁қолымен	-11678
▁дені	-11679
▁құжаттарын	-11680
▁АЙ	-11681
▁фирм	-11682
▁сыныпта	-11683
▁қызметте	-11684
▁Асхат	-11685
етсіз	-11686
▁суреттері	-11687
көлік	-11688
ингтон	-11689
люк	-11690
▁систем	-11691
▁Астананың	-11692
▁желілерде	-11693
▁жасауда	-11694
▁жұмыстарға	-11695
▁бөлігінің	-11696
ченко	-11697
▁қалдықтар	-11698
ябрь	-11699
ix	-11700
▁мәнерлеп	-11701
естері	-11702
▁Заңы	-11703
▁киген	-11704
▁Добав	-11705
▁аймақтағы	-11706
▁формалары	-11707
Об	-11708
▁информа	-11709
▁Тәрбиелік	-11710
▁жарамсыз	-11711
▁бағамы	-11712
▁жүрег	-11713
▁Астанадағы	-11714
иғат	-11715
▁айыру	-11716
ября	-11717
▁сыныптар	-11718
апол	-11719
▁шығара	-11720
мү	-11721
▁ауыратын	-11722
Отан	-11723
БЕК	-11724
▁Дулат	-11725
▁миним	-11726
oday	-11727
еспе	-11728
ыты	-11729
▁апарып	-11730
▁белсенділігі	-11731
gov	-11732
▁киімдер	-11733
▁жанжал	-11734
Сары	-11735
▁рубль	-11736
▁Әз	-11737
лерден	-11738
ЛЫ	-11739
▁азот	-11740
әли	-11741
▁Төлеген	-11742
▁үндеу	-11743
▁басқарушы	-11744
тылуы	-11745
ұш	-11746
▁эссе	-11747
▁дик	-11748
▁өндірісті	-11749
тетін	-11750
▁валюталық	-11751
▁бойымен	-11752
Тау	-11753
денің	-11754
▁номинация	-11755
▁бағдарламасында	-11756
▁Пре	-11757
ША	-11758
▁факультеті	-11759
▁мысық	-11760
▁аналық	-11761
юм	-11762
▁мәліметтері	-11763
▁Директор	-11764
▁жасаудың	-11765
▁шегінде	-11766
▁чемпионатының	-11767
▁кетсек	-11768
▁кешіктір	-11769
▁вагон	-11770
▁қайнар	-11771
▁оқушыларына	-11772
алға	-11773
опр	-11774
▁Тәуелсіздіктің	-11775
▁ҚҰ	-11776
▁прокуратура	-11777
▁Сертифик	-11778
▁ағасы	-11779
▁қанат	-11780
▁болуымен	-11781
▁атпен	-11782
▁шақырған	-11783
▁әкесінің	-11784
Туған	-11785
▁жауапқа	-11786
итан	-11787
▁Гал	-11788
қызыл	-11789
▁Сатып	-11790
▁теледидар	-11791
▁өкілдерімен	-11792
▁қабыну	-11793
▁Балаларға	-11794
▁созылады	-11795
▁Ахметов	-11796
▁экономикасының	-11797
▁сағатқа	-11798
▁бағыттар	-11799
▁оңалту	-11800
екты	-11801
Сыр	-11802
▁бағдарламаны	-11803
▁іскер	-11804
▁көшірмесі	-11805
▁жум	-11806
сүр	-11807
ықтап	-11808
▁қасында	-11809
▁фольклор	-11810
▁жылды	-11811
▁айырылған	-11812
▁фестиваль	-11813
шілерінің	-11814
▁безопас	-11815
▁малдың	-11816
▁тудыратын	-11817
▁тұлғаны	-11818
▁ерін	-11819
▁қазірдің	-11820
▁ұран	-11821
▁жалғасады	-11822
▁терінің	-11823
▁араласып	-11824
лмек	-11825
бектің	-11826
▁салуды	-11827
▁спе	-11828
▁бр	-11829
▁щ	-11830
▁ойында	-11831
▁Microsoft	-11832
антикалық	-11833
▁абай	-11834
пия	-11835
▁вакцинация	-11836
▁қанды	-11837
▁Сп	-11838
▁Ши	-11839
екциясы	-11840
іммен	-11841
▁поэз	-11842
▁меморандум	-11843
ew	-11844
▁тарихының	-11845
▁Соғыс	-11846
▁билікке	-11847
▁арттырып	-11848
▁кетуге	-11849
▁Раз	-11850
▁Естеріңізге	-11851
▁берек	-11852
▁Тұл	-11853
▁жылтыр	-11854
▁көрдік	-11855
▁мақалада	-11856
▁өздер	-11857
ark	-11858
▁мемлекетінің	-11859
▁жойылды	-11860
огенді	-11861
▁кірісті	-11862
▁қызығы	-11863
▁Үм	-11864
▁бюджеттің	-11865
уша	-11866
▁мектептерде	-11867
▁Армен	-11868
одезия	-11869
▁қалыптасып	-11870
▁суретші	-11871
▁терапия	-11872
ғамдық	-11873
▁Kazakhstan	-11874
▁көмект	-11875
ыммен	-11876
▁Рахмет	-11877
▁потенциал	-11878
▁зерттеудің	-11879
▁баруға	-11880
ханада	-11881
Әй	-11882
▁орналасу	-11883
▁КО	-11884
▁төңірегінде	-11885
▁әлеуетті	-11886
▁табиғаттың	-11887
▁махаб	-11888
аларынан	-11889
▁морф	-11890
▁филология	-11891
▁Данияр	-11892
еніп	-11893
▁Кл	-11894
▁орналасады	-11895
▁Оқушы	-11896
▁белдеу	-11897
Толығырақ	-11898
▁Бағдарлама	-11899
▁шағ	-11900
▁Pr	-11901
▁қоршау	-11902
▁құрылып	-11903
▁қазақстан	-11904
▁жұмыста	-11905
▁нығайтуға	-11906
▁эл	-11907
▁Реда	-11908
▁келтіретін	-11909
аңды	-11910
▁Құм	-11911
▁кезден	-11912
▁VI	-11913
Қол	-11914
▁серіктес	-11915
▁скр	-11916
▁Лу	-11917
▁белгілейді	-11918
▁тиян	-11919
▁ащы	-11920
қайта	-11921
▁бүгінге	-11922
▁мәлімдеме	-11923
▁дипломатиялық	-11924
▁байқал	-11925
Жастар	-11926
▁болуды	-11927
▁бірте	-11928
▁все	-11929
кетану	-11930
▁жәй	-11931
▁ЖҰМ	-11932
▁ыз	-11933
ary	-11934
▁қатарлы	-11935
әрекеттер	-11936
ГЕН	-11937
▁есепте	-11938
▁атауын	-11939
▁ней	-11940
▁сыни	-11941
▁біріншіден	-11942
▁салалары	-11943
▁құжаттары	-11944
▁дауыл	-11945
ерге	-11946
▁республиканың	-11947
▁сфер	-11948
▁Дәулет	-11949
▁сендерге	-11950
Бей	-11951
еттілік	-11952
▁Бразил	-11953
▁жалғасып	-11954
▁z	-11955
▁Кәсіби	-11956
▁патология	-11957
▁қиында	-11958
se	-11959
Шығыс	-11960
▁Санк	-11961
▁Семинар	-11962
▁Физ	-11963
▁көрінген	-11964
▁ойлады	-11965
▁тақырыптық	-11966
Халықаралық	-11967
▁барлығына	-11968
▁табыңыз	-11969
▁меңгерту	-11970
арлар	-11971
▁келушілер	-11972
▁бүк	-11973
▁гидр	-11974
▁мәй	-11975
."	-11976
жымалы	-11977
▁бірінің	-11978
▁хақ	-11979
▁білімге	-11980
▁сотының	-11981
▁Ad	-11982
ОБЖ	-11983
фти	-11984
▁Бөлім	-11985
▁сұхбатында	-11986
▁You	-11987
▁ISBN	-11988
▁сатуға	-11989
▁оркестр	-11990
MS	-11991
▁болат	-11992
▁қалыптасты	-11993
▁артықшылықтары	-11994
▁өндіретін	-11995
асса	-11996
▁ішімдік	-11997
▁сақтық	-11998
еон	-11999
▁ақпараттың	-12000
▁этнос	-12001
ағыш	-12002
▁Ваш	-12003
циясының	-12004
лылар	-12005
атрий	-12006
әу	-12007
елеген	-12008
▁болжау	-12009
ational	-12010
▁қорына	-12011
▁өңірдің	-12012
▁ауырып	-12013
▁өзімнің	-12014
▁Денис	-12015
▁ұйымдастырып	-12016
▁конструкция	-12017
▁жіберілді	-12018
▁Лог	-12019
циалистік	-12020
▁сілтемелер	-12021
wikipedia	-12022
дін	-12023
ғажайып	-12024
▁сайттар	-12025
истің	-12026
▁күйін	-12027
▁өзгерді	-12028
▁еніп	-12029
овты	-12030
▁үгіт	-12031
▁төбел	-12032
▁түрм	-12033
▁Олимпи	-12034
▁Экологиялық	-12035
дені	-12036
▁ойнайды	-12037
ылуға	-12038
жылы	-12039
тырды	-12040
▁жалақысы	-12041
кіт	-12042
цияға	-12043
Банк	-12044
▁Мың	-12045
▁шарасы	-12046
▁марқұм	-12047
ентке	-12048
▁Арыстан	-12049
▁Azattyq	-12050
МЖ	-12051
▁ұмытып	-12052
▁оқыды	-12053
▁күйзел	-12054
▁Латын	-12055
▁Аманжол	-12056
▁iPhone	-12057
▁Ертең	-12058
▁қом	-12059
▁KAZ	-12060
index	-12061
▁БІЛ	-12062
▁келіншек	-12063
▁күкір	-12064
ST	-12065
▁Жезқазған	-12066
▁хаттар	-12067
▁жартысы	-12068
тасу	-12069
педі	-12070
ациялау	-12071
▁уақты	-12072
▁кесен	-12073
▁диаметрі	-12074
▁түсінген	-12075
▁туды	-12076
▁айналуы	-12077
КК	-12078
▁қабылдайтын	-12079
щая	-12080
▁принципі	-12081
▁смартфон	-12082
▁Сирия	-12083
кесіне	-12084
▁атан	-12085
жайын	-12086
▁бітіріп	-12087
▁Ск	-12088
қатты	-12089
▁келіссөздер	-12090
▁сақтан	-12091
▁халқын	-12092
▁реттік	-12093
тіркен	-12094
▁екпе	-12095
▁Алматыға	-12096
▁прогресс	-12097
▁жүргізуді	-12098
▁кіріспе	-12099
▁инспектор	-12100
▁үкіметінің	-12101
HAR	-12102
Мү	-12103
▁ауырт	-12104
гия	-12105
▁орам	-12106
▁түйе	-12107
▁бағасының	-12108
▁құттықтап	-12109
▁еңбектер	-12110
▁Департам	-12111
▁таралу	-12112
▁дыбыстар	-12113
▁өндірісінің	-12114
шығы	-12115
doc	-12116
▁тілдерінде	-12117
қыштар	-12118
▁қорқыныш	-12119
▁таулы	-12120
▁сыйлықтар	-12121
▁бұзған	-12122
бли	-12123
▁Жаңаөзен	-12124
▁ұнайды	-12125
▁Екібастұз	-12126
Самұрық	-12127
Өр	-12128
Таб	-12129
ӨЛ	-12130
▁көтеруге	-12131
▁таралуы	-12132
Дін	-12133
▁ұнтақ	-12134
бірте	-12135
▁қолданудың	-12136
▁массасы	-12137
▁Чемпион	-12138
▁график	-12139
▁түген	-12140
▁Ын	-12141
▁депутаттар	-12142
▁тұрғындарына	-12143
ора	-12144
▁Мұндағы	-12145
▁уақыттың	-12146
▁мерекесіне	-12147
▁доллары	-12148
▁науқастың	-12149
▁работы	-12150
▁Түрлі	-12151
▁рах	-12152
▁жобаларын	-12153
▁кілем	-12154
▁құндылығы	-12155
▁тапсырған	-12156
▁дастан	-12157
▁ұйымдастырылып	-12158
▁анықталып	-12159
▁анықтаған	-12160
ішілік	-12161
▁ансамбл	-12162
▁жүргізетін	-12163
▁институттар	-12164
кінде	-12165
▁индик	-12166
▁егістік	-12167
ішті	-12168
ans	-12169
▁сауықтыру	-12170
ную	-12171
▁көпшілікке	-12172
керлерге	-12173
▁программа	-12174
▁жариялап	-12175
▁Am	-12176
▁Видео	-12177
▁Топырақ	-12178
▁Ертіс	-12179
▁жолаушы	-12180
апия	-12181
Кел	-12182
▁қылмыстар	-12183
сық	-12184
▁воз	-12185
измді	-12186
▁кімдер	-12187
▁Хай	-12188
▁шүкір	-12189
▁телефоны	-12190
ектегі	-12191
аск	-12192
ғылардың	-12193
▁кооператив	-12194
▁құралдардың	-12195
ғылары	-12196
▁рәміз	-12197
Әлем	-12198
▁соққан	-12199
▁атымен	-12200
▁өңірдегі	-12201
▁XIX	-12202
▁өнеркәсіб	-12203
▁салықтар	-12204
ФизикаФ	-12205
лақ	-12206
▁сұранысқа	-12207
эль	-12208
КИ	-12209
▁қалыптастырады	-12210
▁Гар	-12211
Үш	-12212
▁Гу	-12213
▁лир	-12214
▁ояту	-12215
▁асырап	-12216
▁басқаратын	-12217
▁биі	-12218
▁зак	-12219
▁жазасын	-12220
анг	-12221
▁айтамын	-12222
▁ұйғар	-12223
елов	-12224
дебиет	-12225
▁саланың	-12226
▁Бах	-12227
▁Пікірлер	-12228
дамалы	-12229
фт	-12230
▁қалыпқа	-12231
▁жапсыр	-12232
▁жасалуы	-12233
бие	-12234
▁өнімділігі	-12235
▁үзіліс	-12236
▁акк	-12237
▁номин	-12238
▁бағаны	-12239
▁шырышты	-12240
▁идеялар	-12241
▁дүй	-12242
▁көрсетіңіз	-12243
ДЕР	-12244
▁сайысы	-12245
▁салмақты	-12246
▁Word	-12247
▁айналысып	-12248
——	-12249
сс	-12250
▁жүргізушісі	-12251
▁берілмейді	-12252
▁асырудың	-12253
▁асырылатын	-12254
▁типі	-12255
▁Шаш	-12256
▁көмекші	-12257
▁бөлігіне	-12258
▁үрдісі	-12259
мм	-12260
ext	-12261
▁мақсатымен	-12262
▁өнерпаз	-12263
▁Бак	-12264
▁Зак	-12265
дардағы	-12266
▁моральдық	-12267
▁қызан	-12268
Жаз	-12269
▁кешенін	-12270
ТІ	-12271
▁отр	-12272
▁трансп	-12273
▁саусақ	-12274
▁тұйық	-12275
▁тілім	-12276
▁тақырыпта	-12277
ананың	-12278
▁Университет	-12279
орн	-12280
▁Білімді	-12281
▁Неліктен	-12282
ланы	-12283
▁стратегия	-12284
▁тілдер	-12285
альд	-12286
Al	-12287
▁шом	-12288
▁Ом	-12289
▁Геометрия	-12290
жүргізуші	-12291
▁шақты	-12292
енов	-12293
▁Mac	-12294
▁депті	-12295
▁азаю	-12296
▁Шаруа	-12297
▁ведомство	-12298
▁түске	-12299
▁суару	-12300
▁сонау	-12301
▁Қоңыр	-12302
▁күтілуде	-12303
▁туын	-12304
▁қараңғы	-12305
▁һәм	-12306
▁есту	-12307
ылығы	-12308
шер	-12309
гы	-12310
▁кездесуде	-12311
▁апат	-12312
▁бөлінетін	-12313
▁әкелетін	-12314
▁жартысында	-12315
ГІЗ	-12316
orld	-12317
▁салты	-12318
▁мәнді	-12319
текті	-12320
▁алаңдау	-12321
▁жаратыл	-12322
▁алақан	-12323
▁негізге	-12324
цияны	-12325
ульф	-12326
▁ұштас	-12327
▁шашты	-12328
▁әсерлі	-12329
▁қорқ	-12330
nur	-12331
▁оларда	-12332
итті	-12333
туалдық	-12334
▁аграрлық	-12335
эм	-12336
Транс	-12337
▁енгізген	-12338
▁шақырамыз	-12339
▁жобасына	-12340
▁by	-12341
▁ардақты	-12342
▁жаңаша	-12343
▁береш	-12344
▁қалмай	-12345
емір	-12346
▁қақтығыс	-12347
▁пісір	-12348
▁Совет	-12349
▁кімнің	-12350
▁білмеймін	-12351
▁Чер	-12352
▁Тегін	-12353
▁укра	-12354
Қазына	-12355
▁Үздік	-12356
▁есептерді	-12357
МЕТ	-12358
▁жүлдегері	-12359
естр	-12360
▁бермек	-12361
▁үлгілері	-12362
▁жауапкершілікті	-12363
▁мәлімдеген	-12364
▁әзірл	-12365
▁алшақ	-12366
тыратын	-12367
▁ультр	-12368
▁танытқан	-12369
▁дедім	-12370
▁ораза	-12371
▁маңызын	-12372
▁Air	-12373
▁жауабы	-12374
▁тобын	-12375
▁Отандық	-12376
▁соңынан	-12377
▁Вол	-12378
▁келетінін	-12379
офизика	-12380
▁разр	-12381
гіту	-12382
ани	-12383
▁Заңының	-12384
▁өліміне	-12385
▁ингредиенттер	-12386
саттық	-12387
▁кімге	-12388
▁қалдырып	-12389
юсер	-12390
ессия	-12391
▁Ре	-12392
адалық	-12393
▁Ли	-12394
ые	-12395
практикалық	-12396
егіш	-12397
▁үйлену	-12398
▁заңдар	-12399
ies	-12400
▁обуч	-12401
▁байланысын	-12402
▁қайталап	-12403
Қас	-12404
тыруға	-12405
▁сөздерін	-12406
▁көрсетудің	-12407
▁фор	-12408
▁біреудің	-12409
▁индустрия	-12410
герім	-12411
жасыл	-12412
▁жанына	-12413
▁Тіз	-12414
▁норма	-12415
▁Канада	-12416
▁жүгіріп	-12417
▁көздерін	-12418
▁тұсаукес	-12419
▁мұрасы	-12420
▁қарады	-12421
▁әрекеттері	-12422
фей	-12423
убликован	-12424
▁вен	-12425
маг	-12426
▁стадион	-12427
▁жайы	-12428
▁Кенес	-12429
▁оқушыға	-12430
▁балалармен	-12431
▁атауға	-12432
ДЕО	-12433
▁Жүн	-12434
▁өзгерістерді	-12435
▁әкет	-12436
▁миг	-12437
▁Бой	-12438
ЫП	-12439
▁жады	-12440
▁шамадан	-12441
иминалистика	-12442
▁жіңішке	-12443
Болашаққа	-12444
▁мег	-12445
▁ус	-12446
▁ірім	-12447
далдық	-12448
▁діні	-12449
▁Кәрім	-12450
ание	-12451
▁тапсырмалары	-12452
▁крист	-12453
▁Дипломдық	-12454
▁факторлардың	-12455
▁нарығын	-12456
▁батарея	-12457
▁жүргізудің	-12458
ендум	-12459
▁артынан	-12460
▁Қазақстаннан	-12461
▁безопасности	-12462
▁атыс	-12463
каға	-12464
▁ЮН	-12465
▁орындалған	-12466
▁жобалары	-12467
тілігіне	-12468
▁терезе	-12469
▁құрды	-12470
ЕТТІК	-12471
Ден	-12472
▁Руб	-12473
▁іргелі	-12474
▁бұршақ	-12475
▁базасын	-12476
▁айырысу	-12477
▁Балық	-12478
▁жеңілдіктер	-12479
▁есебін	-12480
▁мұндағы	-12481
міс	-12482
▁Орган	-12483
▁жайып	-12484
фи	-12485
▁Елдің	-12486
▁үні	-12487
▁шарш	-12488
▁дәмі	-12489
асаңыз	-12490
▁Руслан	-12491
ЕСІ	-12492
▁дайындалып	-12493
▁жарықтандыру	-12494
▁Карт	-12495
▁тербел	-12496
▁Ортақ	-12497
▁жылыту	-12498
дыны	-12499
▁Мұқан	-12500
▁көзқарасын	-12501
▁желіс	-12502
▁топырақтың	-12503
▁Төрағасы	-12504
▁стихи	-12505
бала	-12506
HARAR	-12507
▁қабық	-12508
▁кешегі	-12509
▁фар	-12510
▁Алматының	-12511
Алла	-12512
▁кейінірек	-12513
▁кейінге	-12514
▁фестивалі	-12515
▁аударады	-12516
▁Дәурен	-12517
ақтан	-12518
▁аштық	-12519
лануы	-12520
▁игілік	-12521
▁безендіру	-12522
▁христ	-12523
▁Аң	-12524
▁қылық	-12525
нда	-12526
▁механизмі	-12527
▁Діни	-12528
Тур	-12529
шылықты	-12530
▁Ілияс	-12531
▁пап	-12532
Пар	-12533
▁Қазы	-12534
▁адамзаттың	-12535
▁Жаңақ	-12536
▁еп	-12537
честв	-12538
▁бағдарламаларды	-12539
▁портр	-12540
▁болсам	-12541
▁жаңартылған	-12542
организм	-12543
ханаға	-12544
ылсын	-12545
▁қолтаң	-12546
ханұлы	-12547
идтер	-12548
▁университеттің	-12549
▁бірлестігінің	-12550
▁сығ	-12551
▁даңғылы	-12552
▁қолда	-12553
▁үйдегі	-12554
▁Орынбор	-12555
кесінше	-12556
▁оқыңыз	-12557
▁Фр	-12558
▁Үр	-12559
чев	-12560
▁Мәскеуде	-12561
метикалық	-12562
▁баяғы	-12563
айып	-12564
ормативтік	-12565
едиа	-12566
▁Шара	-12567
▁уақтылы	-12568
▁үлгідегі	-12569
обл	-12570
▁оқытушылар	-12571
▁дұға	-12572
ытты	-12573
%.	-12574
▁тіркестер	-12575
▁гимназ	-12576
▁қайтты	-12577
▁развит	-12578
▁Дата	-12579
▁ұлан	-12580
▁талас	-12581
▁түрге	-12582
▁Достық	-12583
ционалдық	-12584
▁Бірін	-12585
▁артуы	-12586
▁автоматтан	-12587
▁басқаруды	-12588
▁ӘЛ	-12589
▁моделі	-12590
ографиясы	-12591
индер	-12592
▁эксперимен	-12593
▁күзде	-12594
▁мыл	-12595
▁жұмды	-12596
▁Гор	-12597
▁СҚО	-12598
▁адами	-12599
икс	-12600
сә	-12601
▁ғимараты	-12602
▁өркениет	-12603
келең	-12604
.«	-12605
танымдық	-12606
▁ылғалды	-12607
▁Азиядағы	-12608
юк	-12609
▁диссертация	-12610
▁театрының	-12611
▁Құрманғазы	-12612
▁құрт	-12613
▁Айгүл	-12614
▁тізіміне	-12615
▁Телефон	-12616
▁баласына	-12617
▁сөр	-12618
▁ҚҰР	-12619
иди	-12620
▁бірлестігі	-12621
Өл	-12622
▁миллионнан	-12623
▁шоу	-12624
▁жүлделі	-12625
▁сипаттау	-12626
▁дайындаған	-12627
сиф	-12628
▁кесілген	-12629
▁тілдері	-12630
жидек	-12631
▁сөздігі	-12632
анты	-12633
▁технологияны	-12634
▁өтуде	-12635
▁түйінде	-12636
▁түйір	-12637
▁өлке	-12638
▁хаты	-12639
▁иемден	-12640
қабатты	-12641
▁поч	-12642
▁Мін	-12643
ушкин	-12644
▁татар	-12645
▁Әйтпесе	-12646
▁тамыры	-12647
▁Балаларды	-12648
▁оқуды	-12649
▁алғы	-12650
▁мәдениеттің	-12651
▁тұман	-12652
▁ішінара	-12653
Өмір	-12654
▁жерлерге	-12655
▁суретті	-12656
іңнің	-12657
▁бөлімде	-12658
кал	-12659
▁қалар	-12660
ских	-12661
▁көгал	-12662
мандар	-12663
▁түтін	-12664
▁дерт	-12665
▁Email	-12666
▁Алексей	-12667
▁күштері	-12668
▁серіктестер	-12669
▁жазбалар	-12670
▁Гип	-12671
циясын	-12672
Екі	-12673
азытқыш	-12674
▁IT	-12675
ибадат	-12676
▁Ыбырай	-12677
▁Мад	-12678
ғасы	-12679
▁жетпей	-12680
▁БЖ	-12681
▁экономикаға	-12682
▁ЕР	-12683
ОТО	-12684
▁фит	-12685
▁көтерме	-12686
ильді	-12687
▁билет	-12688
бәрі	-12689
ическая	-12690
▁уақытылы	-12691
акөл	-12692
▁тітіркен	-12693
▁генетикалық	-12694
▁жүктелген	-12695
қатынаста	-12696
▁Бердібек	-12697
дерлік	-12698
▁басшылығымен	-12699
▁тат	-12700
Бәй	-12701
ace	-12702
▁туғызады	-12703
▁IP	-12704
гөз	-12705
▁көздің	-12706
▁берер	-12707
▁академик	-12708
▁Мұстаф	-12709
▁Зейнет	-12710
жем	-12711
▁Торғай	-12712
▁көшіріп	-12713
▁жалғасуда	-12714
таралық	-12715
▁сир	-12716
▁Егемен	-12717
▁таппай	-12718
▁Қазалы	-12719
илен	-12720
▁бетке	-12721
анбай	-12722
▁бірдең	-12723
▁шаралардың	-12724
Жүр	-12725
▁пісіру	-12726
аушы	-12727
▁кост	-12728
▁Дек	-12729
Тәуелсіздік	-12730
▁Евр	-12731
галтер	-12732
▁шұңқыр	-12733
▁оқым	-12734
▁жүктел	-12735
евиз	-12736
изациялау	-12737
▁арасына	-12738
▁келгенін	-12739
кенде	-12740
▁командир	-12741
▁қасиетін	-12742
▁оқиғаның	-12743
▁найз	-12744
▁фрак	-12745
▁дүниенің	-12746
▁шым	-12747
▁ажырата	-12748
ҚС	-12749
ыспен	-12750
▁Шетелдік	-12751
діргіш	-12752
▁тәрбиелеп	-12753
▁Елордада	-12754
▁бойжеткен	-12755
тир	-12756
овые	-12757
▁тапқыр	-12758
▁режимін	-12759
күйі	-12760
ХАН	-12761
ызды	-12762
▁қайт	-12763
▁бұлар	-12764
ide	-12765
▁кәсіпқой	-12766
▁тауарлардың	-12767
биот	-12768
▁осыны	-12769
▁халықтар	-12770
▁Польша	-12771
▁Орында	-12772
▁қолдануды	-12773
▁елдерге	-12774
▁Зауыт	-12775
геу	-12776
▁күнімен	-12777
▁фильмі	-12778
▁ғаламтор	-12779
»;	-12780
есен	-12781
▁осынау	-12782
▁Фер	-12783
▁айқай	-12784
▁ықпалы	-12785
сыздан	-12786
▁тұрақтылық	-12787
▁табысқа	-12788
▁пайдаланушы	-12789
▁түпнұсқасы	-12790
▁біріккен	-12791
▁өлеңі	-12792
сут	-12793
сағ	-12794
ознан	-12795
▁дыбысы	-12796
Укра	-12797
овка	-12798
▁кіре	-12799
▁Банкі	-12800
▁қорқынышты	-12801
▁ZHARAR	-12802
▁Өзен	-12803
▁жолдан	-12804
▁дидактикалық	-12805
▁Сим	-12806
▁нәтижелер	-12807
▁ғашық	-12808
▁қатысушылары	-12809
▁проблемалары	-12810
▁Әдістемелік	-12811
▁КҮ	-12812
ократиялық	-12813
▁алқа	-12814
▁технологиясын	-12815
EN	-12816
▁Тағала	-12817
▁тамақтандыру	-12818
▁бок	-12819
▁Арыс	-12820
▁Қатты	-12821
▁ұял	-12822
▁далада	-12823
иртуалды	-12824
TV	-12825
тапсырма	-12826
іті	-12827
▁саях	-12828
▁туыстары	-12829
▁өкілеттік	-12830
▁байқап	-12831
▁топтардың	-12832
▁аймағына	-12833
ические	-12834
Еур	-12835
ЗҚ	-12836
вард	-12837
инк	-12838
▁идеясын	-12839
уж	-12840
▁Айту	-12841
▁күндізгі	-12842
құжат	-12843
▁қалт	-12844
таға	-12845
▁төрағалығымен	-12846
▁цит	-12847
▁өткеннен	-12848
▁тұрғындарға	-12849
▁хар	-12850
▁танылды	-12851
▁апай	-12852
▁ақпараттарды	-12853
▁Жаман	-12854
▁Көбінесе	-12855
альт	-12856
▁жазушылар	-12857
▁кішігірім	-12858
▁мазмұнына	-12859
▁Бірде	-12860
▁сапалық	-12861
ские	-12862
ИМ	-12863
мир	-12864
▁бағаланады	-12865
ими	-12866
▁АК	-12867
▁фермер	-12868
▁көгер	-12869
▁сыйлас	-12870
▁сонша	-12871
▁Проф	-12872
шем	-12873
▁күтпеген	-12874
▁Отбас	-12875
ӘР	-12876
ультура	-12877
▁чемпионатында	-12878
▁қыст	-12879
ғылық	-12880
берек	-12881
▁Авторлық	-12882
▁ғажап	-12883
▁салаға	-12884
▁тиіп	-12885
ысындағы	-12886
Пол	-12887
▁сәттер	-12888
▁ақсақал	-12889
▁иесінің	-12890
▁жылының	-12891
▁топтарға	-12892
▁орналастырылған	-12893
▁СП	-12894
басты	-12895
▁for	-12896
▁экскурс	-12897
▁қаржылай	-12898
▁лит	-12899
▁Ерке	-12900
▁іштей	-12901
егіндегі	-12902
▁жағдайлардың	-12903
▁шешуші	-12904
▁бата	-12905
▁абсолю	-12906
▁Жігі	-12907
▁режимде	-12908
опа	-12909
▁реттейтін	-12910
▁жанып	-12911
▁зерттеген	-12912
вод	-12913
asy	-12914
▁Жеңіл	-12915
▁сәуірдегі	-12916
▁Чех	-12917
▁өңдеуге	-12918
▁аударылған	-12919
▁қайсысы	-12920
▁балаларын	-12921
▁санау	-12922
▁ардагері	-12923
▁қорытындылары	-12924
%),	-12925
▁жоспарына	-12926
оккей	-12927
▁қалалары	-12928
ЕД	-12929
▁полицейлер	-12930
▁бөтел	-12931
▁бөліктері	-12932
▁мәселелеріне	-12933
▁салаларында	-12934
▁слов	-12935
▁Талап	-12936
сапар	-12937
▁жуу	-12938
▁табанды	-12939
▁қашықтан	-12940
▁шаңыр	-12941
ml	-12942
▁кернеу	-12943
ителей	-12944
▁мұғалімдердің	-12945
маңыз	-12946
соң	-12947
▁кеңесшісі	-12948
рап	-12949
имер	-12950
▁орындалды	-12951
ымға	-12952
▁Мәлім	-12953
▁жерінен	-12954
▁адамы	-12955
Nur	-12956
раға	-12957
діретін	-12958
▁кейбіреу	-12959
▁Юр	-12960
▁айналысқан	-12961
▁Эл	-12962
қауыл	-12963
▁кешенінің	-12964
▁жетістіктер	-12965
▁есімін	-12966
▁Біреу	-12967
сейіт	-12968
▁Жүрек	-12969
▁дәуірі	-12970
▁тастайды	-12971
иалдық	-12972
▁ығ	-12973
ашық	-12974
▁Кезінде	-12975
ғұрып	-12976
ремен	-12977
лығында	-12978
▁қатысушыларға	-12979
▁құлаған	-12980
▁сына	-12981
ания	-12982
▁жаулап	-12983
бын	-12984
▁шәкірттер	-12985
одан	-12986
▁фен	-12987
▁мазмұнды	-12988
түй	-12989
▁Мән	-12990
амызды	-12991
▁жасаймыз	-12992
▁президенттік	-12993
▁аспайтын	-12994
▁дамытып	-12995
▁Криминалистика	-12996
▁Өндірістік	-12997
AM	-12998
ower	-12999
▁екеуміз	-13000
▁боль	-13001
▁мектепті	-13002
Қыр	-13003
▁тим	-13004
есқой	-13005
▁түрк	-13006
дасында	-13007
▁бөтен	-13008
▁жүрмін	-13009
▁өркени	-13010
▁тұлғалық	-13011
▁сайланды	-13012
▁құрамасының	-13013
▁балама	-13014
▁Ныс	-13015
щен	-13016
▁фермен	-13017
▁бұзып	-13018
▁Кли	-13019
вал	-13020
кілі	-13021
▁сөйлейді	-13022
▁ІІД	-13023
▁демекші	-13024
шілерді	-13025
ТЕР	-13026
▁алматы	-13027
▁айтулы	-13028
▁жекеменшік	-13029
лығ	-13030
▁мүліктік	-13031
▁төмендеді	-13032
Основы	-13033
▁колон	-13034
зербайжан	-13035
играфия	-13036
▁егу	-13037
▁ескерт	-13038
▁жүргізуде	-13039
Сая	-13040
▁Жақсылық	-13041
▁өсетін	-13042
▁азайтуға	-13043
▁станс	-13044
одты	-13045
▁соғысының	-13046
▁өзімен	-13047
▁Матер	-13048
Жет	-13049
▁сипаттамалары	-13050
▁Анг	-13051
▁журналистика	-13052
▁Катег	-13053
▁Санкт	-13054
▁өңірі	-13055
▁өзіңізді	-13056
▁Тұтын	-13057
▁академиясы	-13058
▁Эль	-13059
▁АН	-13060
)-	-13061
▁тұрмысқа	-13062
▁денсаулыққа	-13063
Мақ	-13064
▁ертегілер	-13065
Жауап	-13066
▁душ	-13067
▁үкіметтің	-13068
▁шир	-13069
▁тенден	-13070
Күн	-13071
қайыр	-13072
▁батырдың	-13073
▁сүйем	-13074
▁сіздер	-13075
роб	-13076
▁мақаласында	-13077
овқа	-13078
▁нарыққа	-13079
▁ұрпақты	-13080
▁мектептегі	-13081
▁атлетика	-13082
▁Эконом	-13083
▁іргет	-13084
▁мынан	-13085
▁Грузия	-13086
▁корпоративтік	-13087
▁Геодезия	-13088
▁бриг	-13089
▁көтеріледі	-13090
▁ұйымдастырудың	-13091
ЫСТ	-13092
қожа	-13093
▁Мұрағат	-13094
▁серпін	-13095
▁заманның	-13096
▁әкімшілігінің	-13097
▁Жылы	-13098
▁Комит	-13099
▁зерделеу	-13100
▁Тегтер	-13101
▁концентрация	-13102
▁Блог	-13103
▁ғылымы	-13104
▁admin	-13105
▁жетекшілік	-13106
▁мақаласы	-13107
▁жететін	-13108
▁тұрақтандыру	-13109
▁элементтерін	-13110
▁рус	-13111
▁дастархан	-13112
▁кезеңнің	-13113
жылды	-13114
▁айналу	-13115
▁шашыр	-13116
▁лей	-13117
▁бан	-13118
▁ойындарының	-13119
БАЕВ	-13120
▁стен	-13121
▁тәсілдер	-13122
▁амандас	-13123
▁періш	-13124
алайтын	-13125
▁өнердің	-13126
▁тілейміз	-13127
▁Есіл	-13128
▁жандарға	-13129
▁ДВ	-13130
▁гормон	-13131
▁ұрыс	-13132
▁Кішкентай	-13133
Бұ	-13134
▁қалдырады	-13135
▁сұлулық	-13136
кек	-13137
dro	-13138
ылыми	-13139
▁лок	-13140
▁қарқыны	-13141
икер	-13142
▁Одағы	-13143
▁сырттай	-13144
десіне	-13145
уле	-13146
▁тірегі	-13147
▁кыз	-13148
▁қозғалысын	-13149
▁қауымдастығының	-13150
▁Еуро	-13151
▁Қонақ	-13152
▁науқастар	-13153
▁лицей	-13154
ТЫН	-13155
▁ныш	-13156
oldid	-13157
▁сенемін	-13158
▁Банктің	-13159
ss	-13160
▁планет	-13161
▁ғалымы	-13162
ІС	-13163
▁уағыз	-13164
онден	-13165
▁десеңіз	-13166
▁азаматтарының	-13167
ИКАЛЫҚ	-13168
▁Боз	-13169
▁Роза	-13170
▁орындаған	-13171
▁түсе	-13172
▁Мұхамед	-13173
▁бастығының	-13174
▁дөңгел	-13175
▁пікірталас	-13176
▁сәндік	-13177
▁аймаққа	-13178
▁Әзірге	-13179
▁ТАР	-13180
▁олен	-13181
▁ҚОР	-13182
▁сұй	-13183
▁қабілеттілігін	-13184
▁Мұғалімнің	-13185
▁астынан	-13186
▁таныстырып	-13187
▁қалайды	-13188
▁зиялы	-13189
жық	-13190
▁алюминий	-13191
▁пішіні	-13192
▁Оқулық	-13193
▁процесіне	-13194
ah	-13195
▁затты	-13196
▁физиологиялық	-13197
азиялық	-13198
▁пневмон	-13199
▁сырттан	-13200
▁соғысқа	-13201
▁топтағы	-13202
▁оқиғаға	-13203
өңгелек	-13204
иялардың	-13205
▁атағын	-13206
тауды	-13207
▁этно	-13208
▁желісін	-13209
▁шамалы	-13210
▁үрей	-13211
▁сыры	-13212
бом	-13213
дердегі	-13214
спен	-13215
▁таблет	-13216
▁мекемелердің	-13217
▁шеше	-13218
▁жоғалған	-13219
▁халықтардың	-13220
▁Фильм	-13221
▁мәселелерге	-13222
▁ойды	-13223
▁Кәсіпорынның	-13224
▁Сілтем	-13225
▁қақтығы	-13226
▁көгілдір	-13227
иў	-13228
юй	-13229
шілігінде	-13230
▁жоқпын	-13231
▁воп	-13232
▁Home	-13233
гек	-13234
▁Грек	-13235
▁Көңіл	-13236
▁Тілеу	-13237
▁етін	-13238
▁зейін	-13239
▁таратқан	-13240
▁маусымдағы	-13241
▁мектептердің	-13242
▁пей	-13243
▁әзірленген	-13244
▁велосипед	-13245
ИР	-13246
▁арманы	-13247
▁өріс	-13248
▁жеткізілген	-13249
сүргін	-13250
▁Егип	-13251
ET	-13252
▁жаратылыстану	-13253
▁полициясы	-13254
▁жиында	-13255
ult	-13256
▁есімдер	-13257
▁аталды	-13258
▁Ұқсас	-13259
▁заңдары	-13260
зым	-13261
ыдыр	-13262
ыңның	-13263
еңді	-13264
▁Философия	-13265
старға	-13266
▁роль	-13267
▁Өткіз	-13268
▁кеңсе	-13269
▁форматта	-13270
▁режимінде	-13271
▁пункт	-13272
▁ұшырады	-13273
ацияның	-13274
Орт	-13275
мегін	-13276
▁плен	-13277
▁Аллаға	-13278
ханият	-13279
▁дәрігердің	-13280
▁Слайд	-13281
адыб	-13282
▁Дүйсен	-13283
▁Ұя	-13284
▁Түс	-13285
▁артта	-13286
▁стипен	-13287
каны	-13288
▁кеме	-13289
▁Өзге	-13290
▁құжаттам	-13291
ынның	-13292
▁археологиялық	-13293
оқыту	-13294
▁алаңға	-13295
▁БЕР	-13296
▁өлтірген	-13297
▁эфф	-13298
ИВ	-13299
дун	-13300
▁дезин	-13301
анасының	-13302
щий	-13303
руд	-13304
▁сипаттайды	-13305
жабдықтар	-13306
▁көремін	-13307
▁обь	-13308
▁шетелде	-13309
▁қабылдауды	-13310
▁Клин	-13311
КІ	-13312
учить	-13313
▁қаулысы	-13314
▁Қоры	-13315
порттық	-13316
митр	-13317
ейбол	-13318
як	-13319
▁өсімдіктерді	-13320
▁кам	-13321
▁жылап	-13322
▁Киев	-13323
▁азат	-13324
АДЫ	-13325
еме	-13326
▁жауабын	-13327
итін	-13328
▁өлі	-13329
▁фармацев	-13330
Рус	-13331
▁өркендеу	-13332
▁тесік	-13333
илищ	-13334
▁Демография	-13335
▁тосқауыл	-13336
Петербург	-13337
▁спектр	-13338
▁тіркелу	-13339
▁Тұқ	-13340
▁азайтады	-13341
кілікті	-13342
▁құмыр	-13343
▁төбе	-13344
ech	-13345
▁пил	-13346
▁руководител	-13347
▁басының	-13348
баны	-13349
▁жеткін	-13350
▁Шан	-13351
▁зұл	-13352
BC	-13353
▁тұрғылықты	-13354
▁кесірінен	-13355
Ау	-13356
▁Тың	-13357
▁Негізі	-13358
▁Сауд	-13359
▁спектак	-13360
▁лаң	-13361
▁салайық	-13362
ематикалық	-13363
▁ұзаққа	-13364
▁кісілер	-13365
▁Другие	-13366
КЕН	-13367
юі	-13368
▁жазушысы	-13369
▁Нұртас	-13370
▁функциялары	-13371
▁қасиеттерді	-13372
ғасын	-13373
▁мадақ	-13374
▁адамдары	-13375
▁астр	-13376
▁тексеруге	-13377
▁түсіреді	-13378
▁анықтамасы	-13379
▁Ірі	-13380
▁факторы	-13381
▁Дин	-13382
▁шығындары	-13383
▁Акция	-13384
▁өлімі	-13385
▁жүргін	-13386
emen	-13387
▁мүддесін	-13388
кеев	-13389
ақпарат	-13390
аборатор	-13391
▁асырып	-13392
сабақ	-13393
▁заңның	-13394
▁қалаушы	-13395
▁Жаһ	-13396
ское	-13397
СО	-13398
қатынасты	-13399
▁жанын	-13400
▁индексі	-13401
тырақ	-13402
▁аяқталғаннан	-13403
▁Мұсылман	-13404
▁дарын	-13405
қосымша	-13406
▁автоном	-13407
▁тұруы	-13408
▁Жалғыз	-13409
▁қоржын	-13410
▁жәбірлен	-13411
овой	-13412
▁жизне	-13413
мыстық	-13414
▁топтам	-13415
▁тұрғанда	-13416
▁ауырған	-13417
▁области	-13418
▁өнімін	-13419
▁мерзімінен	-13420
▁аймақтарда	-13421
▁Қарас	-13422
▁полигон	-13423
▁кірпіш	-13424
▁БІР	-13425
▁өткізуді	-13426
▁или	-13427
риг	-13428
▁наг	-13429
▁МЕМ	-13430
етінші	-13431
▁бекер	-13432
ect	-13433
▁Москва	-13434
ртүрлі	-13435
▁гастр	-13436
▁шындықты	-13437
чин	-13438
▁істеуі	-13439
?"	-13440
▁саябақ	-13441
▁аяқтады	-13442
▁табын	-13443
▁сақталуы	-13444
шелік	-13445
▁жетік	-13446
▁әлеміне	-13447
кестік	-13448
▁қосылыстар	-13449
▁жинауға	-13450
▁ил	-13451
▁бөлінуі	-13452
Батыс	-13453
▁Теміртау	-13454
▁ИН	-13455
Дж	-13456
▁шығармаларын	-13457
▁жидек	-13458
▁Бен	-13459
▁Алтынсарин	-13460
жарақ	-13461
▁тілектер	-13462
▁бәрінен	-13463
▁аумағына	-13464
▁Ендігі	-13465
штаб	-13466
▁сах	-13467
▁санды	-13468
▁com	-13469
▁архит	-13470
▁телеарнасы	-13471
▁мағынада	-13472
▁Мәжіл	-13473
Қаржы	-13474
▁резиден	-13475
▁елімізге	-13476
▁ақыры	-13477
▁жылын	-13478
ьес	-13479
опедия	-13480
▁салмақта	-13481
▁дәлелдеу	-13482
▁органдарына	-13483
▁Таяу	-13484
▁төлейді	-13485
▁Сәрсен	-13486
▁сайланған	-13487
▁аудандарында	-13488
ессион	-13489
▁Сур	-13490
▁th	-13491
еске	-13492
▁Мус	-13493
ыңнан	-13494
околад	-13495
аланың	-13496
▁Немесе	-13497
▁азайып	-13498
▁проблемаларды	-13499
▁оқиғаны	-13500
▁алатынын	-13501
▁жизнеде	-13502
▁авто	-13503
▁жамбас	-13504
▁мүфти	-13505
▁жасауы	-13506
ұт	-13507
▁ветеринар	-13508
деміз	-13509
▁жемісі	-13510
maty	-13511
▁басталуы	-13512
▁Ок	-13513
▁жетістікке	-13514
▁тақырыбындағы	-13515
▁жиналды	-13516
олы	-13517
▁Қорқыт	-13518
▁Амангелді	-13519
тиметр	-13520
▁экз	-13521
▁адалдық	-13522
ователь	-13523
▁көктемгі	-13524
▁ауаның	-13525
▁қарастырып	-13526
ну	-13527
Түркістан	-13528
▁оқытуды	-13529
▁ұлғаю	-13530
қатынасы	-13531
ғысын	-13532
рем	-13533
ңіз	-13534
▁Ұлан	-13535
▁қаражатты	-13536
▁Жұмабаев	-13537
детіп	-13538
▁үсті	-13539
▁ЕЛ	-13540
▁ажырату	-13541
▁дабыл	-13542
▁асыруда	-13543
мауға	-13544
▁баяндау	-13545
беді	-13546
▁отбасыларға	-13547
▁Ұй	-13548
▁Зай	-13549
нын	-13550
каф	-13551
▁құшақ	-13552
ективті	-13553
адрат	-13554
▁нотар	-13555
▁дәстүрі	-13556
еспонден	-13557
____________	-13558
илев	-13559
▁жылдарда	-13560
▁Парт	-13561
▁шешімді	-13562
▁түсуге	-13563
қылау	-13564
▁ST	-13565
▁Ару	-13566
дағыш	-13567
▁ерекшелігін	-13568
▁губерн	-13569
▁жетістіктерін	-13570
берді	-13571
▁Кафед	-13572
▁Менеджмент	-13573
▁температурада	-13574
▁топта	-13575
эпидемиологиялық	-13576
▁шешеді	-13577
▁ТУР	-13578
▁намысын	-13579
әрмен	-13580
▁өзгеру	-13581
▁тізілім	-13582
▁біржол	-13583
▁типті	-13584
▁қолды	-13585
бая	-13586
▁Астанаға	-13587
▁азаяды	-13588
▁учеб	-13589
▁өндірілген	-13590
▁газетінде	-13591
▁лиценз	-13592
▁кенеттен	-13593
оров	-13594
▁жеңімпаздары	-13595
▁ұғымдар	-13596
▁Жұмағ	-13597
▁тынысы	-13598
▁бекіткен	-13599
овых	-13600
▁публикации	-13601
▁ЖҮ	-13602
▁сво	-13603
▁News	-13604
▁тигізетін	-13605
▁Үйде	-13606
▁қолдайды	-13607
▁бақша	-13608
ісов	-13609
▁студенттік	-13610
▁ТҮР	-13611
▁Ерекше	-13612
▁ұстады	-13613
▁естен	-13614
▁ұрық	-13615
▁Кесте	-13616
▁көкөністер	-13617
▁байқай	-13618
▁формат	-13619
ьян	-13620
▁ықтималды	-13621
▁Эм	-13622
▁еңбектің	-13623
▁елу	-13624
▁тығыздығы	-13625
лерімен	-13626
▁кезінен	-13627
СЕ	-13628
▁өндіруге	-13629
▁қалыңдығы	-13630
инновациялық	-13631
▁Орташа	-13632
▁институтын	-13633
▁уайым	-13634
▁ЖОЛ	-13635
▁басымды	-13636
▁даланың	-13637
бұз	-13638
митрий	-13639
▁аяқтаған	-13640
ork	-13641
▁Төртінші	-13642
▁сақтауды	-13643
▁корпорациясы	-13644
▁мақсаттарға	-13645
▁төзімділік	-13646
▁дүниеден	-13647
▁марапатталған	-13648
ханова	-13649
▁зымыран	-13650
формация	-13651
▁боламын	-13652
▁жетістіктерге	-13653
▁оқытуға	-13654
▁Геофизика	-13655
▁өкілдеріне	-13656
анттар	-13657
▁Today	-13658
▁немен	-13659
▁свиде	-13660
▁жобаға	-13661
▁есептелген	-13662
гем	-13663
▁Керек	-13664
▁Мұз	-13665
▁ғибадат	-13666
лінше	-13667
▁тағайындалады	-13668
▁мир	-13669
▁түбінде	-13670
▁тра	-13671
▁тиісінше	-13672
лык	-13673
▁орындайтын	-13674
▁бұрғыл	-13675
▁Эт	-13676
▁сарапшы	-13677
еуіл	-13678
▁қысымы	-13679
▁кітаптың	-13680
▁залы	-13681
дарындағы	-13682
▁мерей	-13683
▁жасөспірім	-13684
▁аударыңыз	-13685
▁Геннад	-13686
иу	-13687
▁жұмсалған	-13688
▁ОК	-13689
▁жылжымалы	-13690
▁көтереді	-13691
▁онк	-13692
әдени	-13693
▁есігін	-13694
▁TV	-13695
▁баспасы	-13696
▁жағындағы	-13697
▁ЖЫЛ	-13698
фекция	-13699
▁Гран	-13700
ңдеу	-13701
▁өзгерген	-13702
айғыр	-13703
▁ауылына	-13704
▁келеміз	-13705
▁баяндады	-13706
▁is	-13707
▁орындалу	-13708
▁хандығы	-13709
аша	-13710
▁ойнаған	-13711
▁комитет	-13712
▁минуттан	-13713
▁әдістерді	-13714
шіні	-13715
▁Пайғамбарымыз	-13716
▁Зерт	-13717
▁қаралған	-13718
oint	-13719
lo	-13720
▁басқарады	-13721
дом	-13722
▁Нұржан	-13723
▁тиек	-13724
▁жүйрік	-13725
рай	-13726
▁Райым	-13727
▁ойланып	-13728
▁Швейцар	-13729
рус	-13730
театр	-13731
бик	-13732
шеу	-13733
▁көліктің	-13734
▁қиыншылық	-13735
▁жүйелік	-13736
инге	-13737
▁Дүние	-13738
ure	-13739
банов	-13740
▁вари	-13741
▁Осылай	-13742
акс	-13743
yp	-13744
▁Әбішұлы	-13745
▁көрсетіл	-13746
ТЖ	-13747
▁жандандыру	-13748
▁еріктілер	-13749
▁леб	-13750
▁өтілі	-13751
ындығында	-13752
▁анықтай	-13753
берг	-13754
▁түрдегі	-13755
▁миф	-13756
▁ойыншы	-13757
▁ықпалын	-13758
▁қойма	-13759
▁талдап	-13760
▁кеткенін	-13761
▁еңбегінде	-13762
ПУБЛ	-13763
▁ойлайды	-13764
▁шалды	-13765
▁Тәуелсіздігінің	-13766
торлық	-13767
ват	-13768
▁тышқан	-13769
▁плаз	-13770
абақша	-13771
▁мынандай	-13772
▁Стал	-13773
▁сақин	-13774
▁Молда	-13775
▁кітапты	-13776
▁ХХІ	-13777
дырылды	-13778
▁түрінің	-13779
▁автокөл	-13780
▁иелерінің	-13781
▁Жұрт	-13782
usin	-13783
▁актр	-13784
▁жапон	-13785
▁сандарды	-13786
ys	-13787
▁калий	-13788
▁тоннаға	-13789
ғалар	-13790
▁мердігер	-13791
CO	-13792
▁келмей	-13793
▁қолданыңыз	-13794
олюциялық	-13795
▁Жазушылар	-13796
▁ипотекалық	-13797
▁тиген	-13798
▁Жобаның	-13799
ориялық	-13800
▁теті	-13801
амның	-13802
▁ота	-13803
▁әңгімен	-13804
▁байқаған	-13805
тасқан	-13806
оля	-13807
▁өзгеруіне	-13808
▁аясындағы	-13809
түсін	-13810
▁мүшелерін	-13811
▁жүруге	-13812
▁таңы	-13813
сү	-13814
МС	-13815
▁Мек	-13816
▁күресі	-13817
▁ақшаның	-13818
▁РМК	-13819
▁операцияларды	-13820
▁айным	-13821
талар	-13822
▁заңгер	-13823
мад	-13824
roup	-13825
Салық	-13826
▁пікірлерін	-13827
▁заңмен	-13828
▁коэффициенті	-13829
▁хирургиялық	-13830
▁зерттейтін	-13831
ите	-13832
▁Депут	-13833
▁Дмитрий	-13834
▁Момыш	-13835
▁сүйген	-13836
▁Индустрия	-13837
▁акциялар	-13838
▁Сенат	-13839
▁сәттен	-13840
дейі	-13841
▁орталықтың	-13842
терінен	-13843
▁жандардың	-13844
▁сөзінен	-13845
алайды	-13846
▁мұғалімдері	-13847
қабат	-13848
▁Аудар	-13849
▁Тәңір	-13850
▁Құрмет	-13851
▁өкп	-13852
▁есебінде	-13853
▁ынталан	-13854
оған	-13855
▁құраған	-13856
▁Сабақты	-13857
▁белок	-13858
▁автоматтандыру	-13859
▁нақыл	-13860
▁максималды	-13861
▁бұлай	-13862
▁тіледі	-13863
Шымкент	-13864
демі	-13865
▁кездесуге	-13866
▁Билік	-13867
▁Диаг	-13868
ылығын	-13869
▁Жарық	-13870
▁қарамай	-13871
▁картин	-13872
akon	-13873
▁шыб	-13874
▁келісімді	-13875
▁Заңды	-13876
!..	-13877
▁өндірісін	-13878
▁Жазушы	-13879
ory	-13880
▁Мазмұ	-13881
▁Нам	-13882
ых	-13883
▁тасқын	-13884
▁сұм	-13885
арда	-13886
▁нерв	-13887
▁асырылып	-13888
шылықтың	-13889
діңіз	-13890
Tube	-13891
▁Аты	-13892
▁сүреді	-13893
▁сенбі	-13894
▁жағдайларын	-13895
▁көптен	-13896
!"	-13897
▁жолдас	-13898
ІНДЕ	-13899
▁бағыттарын	-13900
▁онша	-13901
▁ізгілік	-13902
талай	-13903
▁Ақш	-13904
▁топырақты	-13905
▁карди	-13906
▁төмендеген	-13907
ҚЫҰ	-13908
іктің	-13909
Жо	-13910
▁Дәстүрлі	-13911
▁сайлауға	-13912
сез	-13913
білік	-13914
▁Республики	-13915
▁беттің	-13916
▁орындалатын	-13917
▁ХҚ	-13918
▁Ac	-13919
▁ішу	-13920
▁Әлия	-13921
▁сотта	-13922
▁алғанын	-13923
▁парк	-13924
▁қалғанын	-13925
▁бесі	-13926
▁иісті	-13927
▁екіжақты	-13928
IT	-13929
▁тырн	-13930
▁доцент	-13931
див	-13932
▁пайызды	-13933
▁қорғаушы	-13934
км	-13935
▁жүйелерін	-13936
аптар	-13937
▁машиналар	-13938
▁ҰҚК	-13939
▁егіз	-13940
▁туғанына	-13941
келер	-13942
▁желілік	-13943
▁әдіспен	-13944
▁алмайсыз	-13945
▁оңтайландыру	-13946
▁әдісімен	-13947
▁Психологиялық	-13948
▁болатындығын	-13949
▁Qazaq	-13950
▁тағайындал	-13951
▁бергі	-13952
▁өткізетін	-13953
form	-13954
▁Өнім	-13955
изатор	-13956
▁өліп	-13957
зада	-13958
▁күйге	-13959
▁ағыл	-13960
▁қойылып	-13961
cel	-13962
▁ақпараттандыру	-13963
iy	-13964
▁аспаптар	-13965
▁автордың	-13966
төрт	-13967
▁көшеде	-13968
ирк	-13969
▁Даму	-13970
▁даярлық	-13971
МДБ	-13972
▁бердім	-13973
▁Ленин	-13974
оли	-13975
сып	-13976
▁бензин	-13977
Спорт	-13978
▁тұтынушылардың	-13979
▁паралл	-13980
▁ұмытпаңыз	-13981
▁синдромы	-13982
Оңтүстік	-13983
▁заманында	-13984
тант	-13985
▁кальций	-13986
▁мәз	-13987
▁өкілді	-13988
мағұл	-13989
▁өнімдердің	-13990
▁қолдайтын	-13991
ite	-13992
▁модер	-13993
▁Федерациясының	-13994
▁Хар	-13995
▁Ыр	-13996
▁тұжырымдамасы	-13997
оу	-13998
▁қайраткерлері	-13999
▁атқа	-14000
▁шешіміне	-14001
▁сипаттайтын	-14002
лығаш	-14003
▁алғаны	-14004
▁мейлінше	-14005
▁ұсынылатын	-14006
ске	-14007
Сар	-14008
▁тәулікте	-14009
Аман	-14010
▁мәслихаттың	-14011
▁грамматикалық	-14012
▁элементі	-14013
▁көзбен	-14014
▁Стандар	-14015
БАЙ	-14016
пенің	-14017
▁Жолдауы	-14018
▁субъект	-14019
▁жатырмын	-14020
іреді	-14021
▁коорд	-14022
▁аша	-14023
▁шындыққа	-14024
▁бәрібір	-14025
▁кек	-14026
▁даңғыл	-14027
▁Химиялық	-14028
▁қызығушылығы	-14029
▁Мед	-14030
▁еркімен	-14031
емия	-14032
▁қуатын	-14033
▁сәлемі	-14034
▁құруды	-14035
▁айтас	-14036
▁төрайымы	-14037
uc	-14038
▁кезеңнен	-14039
▁жақсартады	-14040
Қал	-14041
рациясы	-14042
▁Ест	-14043
▁көмегін	-14044
ритандық	-14045
▁зейнетақ	-14046
▁бакал	-14047
▁колледжінің	-14048
қаты	-14049
▁аним	-14050
ылардың	-14051
▁геологиялық	-14052
ons	-14053
▁үйренген	-14054
▁Тәрбиеші	-14055
▁жарас	-14056
▁лауазымына	-14057
▁Елбасымыз	-14058
қышқыл	-14059
Экономика	-14060
▁батып	-14061
▁кешкен	-14062
ШЫЛ	-14063
▁әрекетінің	-14064
▁ықылас	-14065
▁конференциясы	-14066
▁қүр	-14067
▁қомақты	-14068
▁көтере	-14069
▁жауынгерлік	-14070
▁«...	-14071
▁мекемелері	-14072
Сөз	-14073
▁продюсер	-14074
▁жіктеу	-14075
▁дәрежесіне	-14076
іңізбен	-14077
▁зерттеушілер	-14078
ают	-14079
▁стандарты	-14080
▁Ассамблеясының	-14081
▁марапаттау	-14082
ЕСКО	-14083
▁мекеменің	-14084
ірі	-14085
▁шапшаң	-14086
бөлім	-14087
ными	-14088
▁Махаббат	-14089
▁болмыс	-14090
▁қорытындылау	-14091
▁телеарнасының	-14092
▁фан	-14093
▁Рай	-14094
▁Жасыл	-14095
▁екіншіден	-14096
онда	-14097
▁көлеміне	-14098
▁Рез	-14099
жаңа	-14100
▁Тимур	-14101
шот	-14102
негіз	-14103
▁өсіруге	-14104
▁сауалнама	-14105
▁Ша	-14106
▁Энергетика	-14107
▁көрнекілігі	-14108
илик	-14109
▁бюр	-14110
▁дұш	-14111
▁байыту	-14112
▁қызған	-14113
▁етек	-14114
▁Прокур	-14115
▁ішкен	-14116
оспитатель	-14117
▁қолжаз	-14118
▁Әзірбайжан	-14119
шараға	-14120
▁патологиялық	-14121
▁компаниялары	-14122
▁түсірді	-14123
▁себептерін	-14124
▁Рос	-14125
ағатты	-14126
▁төленеді	-14127
ифрлық	-14128
▁Vesti	-14129
▁литература	-14130
▁кезектен	-14131
▁шахмат	-14132
▁Құқықтық	-14133
▁Түркімен	-14134
▁кофе	-14135
▁алаш	-14136
▁Азық	-14137
▁референдум	-14138
иков	-14139
▁күштер	-14140
▁Нарық	-14141
▁тиын	-14142
орг	-14143
▁көмегі	-14144
такте	-14145
▁Геннадий	-14146
иторлық	-14147
▁("	-14148
▁жүрміз	-14149
▁дегенге	-14150
ілмей	-14151
▁нарықтағы	-14152
мәтелдер	-14153
амас	-14154
сіздікке	-14155
▁Қаланың	-14156
▁қамсыздандыру	-14157
оқу	-14158
▁Колледж	-14159
▁Әйелдер	-14160
сом	-14161
▁Павло	-14162
▁барысын	-14163
То	-14164
▁трлн	-14165
▁ректоры	-14166
▁маусымы	-14167
▁Сүт	-14168
▁бермеген	-14169
▁нөл	-14170
алпақ	-14171
▁жобалардың	-14172
▁қалғаны	-14173
▁Жақып	-14174
▁Негізінен	-14175
илиндр	-14176
▁текше	-14177
▁еріксіз	-14178
▁дір	-14179
▁ТҮ	-14180
▁итерм	-14181
usiness	-14182
аларымыздың	-14183
▁ауруға	-14184
▁рынок	-14185
▁қолданылып	-14186
▁пайдаланылған	-14187
▁ролі	-14188
▁баланс	-14189
▁Байқоңыр	-14190
▁мүмкіндігіне	-14191
▁нормалар	-14192
▁дәрігерлік	-14193
▁Сән	-14194
▁мең	-14195
▁шегін	-14196
▁алғыш	-14197
▁Сәбит	-14198
▁бон	-14199
▁жаңашыл	-14200
▁жығ	-14201
▁түрт	-14202
▁қын	-14203
▁Мәжілісінің	-14204
икан	-14205
▁аласыздар	-14206
▁сөйледі	-14207
▁Жетіс	-14208
▁түсініксіз	-14209
▁ӘДЕ	-14210
▁тенге	-14211
▁таратып	-14212
ть	-14213
▁Басқару	-14214
▁шегер	-14215
▁толтырып	-14216
▁өткенде	-14217
▁пайдасына	-14218
▁кемпір	-14219
▁ұшырайды	-14220
бетте	-14221
мекші	-14222
▁отқа	-14223
▁фосфор	-14224
Музыка	-14225
меуі	-14226
▁пайымдау	-14227
▁өзімді	-14228
бир	-14229
▁тұрақсыз	-14230
▁бәсеке	-14231
▁болғандар	-14232
Вт	-14233
▁көргенде	-14234
▁Нор	-14235
ирен	-14236
▁көңілін	-14237
▁бөлімдері	-14238
імізбен	-14239
орыс	-14240
▁дүниені	-14241
▁айтуы	-14242
▁жұдырық	-14243
▁айырылып	-14244
droid	-14245
▁шектеулер	-14246
▁ұйымдастырады	-14247
▁Күнделікті	-14248
▁Институ	-14249
▁білмеген	-14250
тесі	-14251
▁орнатылды	-14252
▁қаулысына	-14253
▁шығындарын	-14254
▁уез	-14255
▁Вы	-14256
ханалар	-14257
▁Құрбан	-14258
▁шағы	-14259
▁мүшелеріне	-14260
▁әрекеттерді	-14261
▁пластикалық	-14262
дының	-14263
▁досы	-14264
▁сыныб	-14265
▁ұяшық	-14266
юль	-14267
▁Сапарбаев	-14268
аналардың	-14269
▁Әсет	-14270
▁қорғауды	-14271
▁инвесторлар	-14272
▁реал	-14273
▁келмеген	-14274
▁абон	-14275
▁профилактикалық	-14276
истердің	-14277
оти	-14278
▁ренж	-14279
▁себептен	-14280
▁көлікті	-14281
вай	-14282
▁Кеп	-14283
▁шекте	-14284
▁келісімі	-14285
екей	-14286
▁бабы	-14287
▁мекемелерінің	-14288
AD	-14289
ert	-14290
▁Сағат	-14291
▁ұң	-14292
iet	-14293
▁норматив	-14294
line	-14295
ilim	-14296
ғайды	-14297
▁ДС	-14298
▁сынау	-14299
▁Таза	-14300
изон	-14301
▁Қытайдан	-14302
еше	-14303
қала	-14304
▁туа	-14305
▁көрсетіліп	-14306
▁көздел	-14307
ханалық	-14308
▁қалдықтарды	-14309
▁Кав	-14310
▁тырысып	-14311
▁во	-14312
▁әлеуеті	-14313
▁РЕСПУБЛ	-14314
▁АЛМ	-14315
▁балаларына	-14316
▁көпшіліктің	-14317
▁ион	-14318
▁қаржыны	-14319
▁құжатты	-14320
▁жалпақ	-14321
▁сырған	-14322
▁оқырмандар	-14323
иля	-14324
әлемдік	-14325
▁Корпор	-14326
ологии	-14327
▁натрий	-14328
▁алғысын	-14329
дікі	-14330
▁сантиметр	-14331
▁тәмам	-14332
▁шығаруды	-14333
ЕҢ	-14334
ЫСЫ	-14335
▁екендігіне	-14336
▁әш	-14337
▁асырылуда	-14338
▁робот	-14339
▁Құрам	-14340
▁Мемлекеттің	-14341
▁ул	-14342
▁Алып	-14343
▁дауысы	-14344
ақас	-14345
маз	-14346
▁облыстарында	-14347
▁өсуін	-14348
EL	-14349
▁тартыс	-14350
ікі	-14351
▁дүйсенбі	-14352
▁құштар	-14353
Министрі	-14354
▁Уақыты	-14355
улин	-14356
▁жауаптар	-14357
▁күйеуі	-14358
▁палатасы	-14359
▁алайық	-14360
муникациялық	-14361
▁мамандығының	-14362
▁Док	-14363
▁өмірдегі	-14364
цет	-14365
▁билікті	-14366
шымен	-14367
▁Хол	-14368
▁министрлігінде	-14369
хай	-14370
іңіздер	-14371
▁Керісінше	-14372
▁тауарды	-14373
▁әзірленді	-14374
▁Шығы	-14375
▁атаулары	-14376
▁бағалап	-14377
▁белгілеп	-14378
екең	-14379
▁ода	-14380
▁басқарып	-14381
▁шан	-14382
ТБ	-14383
▁СӨ	-14384
▁спортпен	-14385
▁Англ	-14386
▁машинасы	-14387
▁дәлелі	-14388
Дам	-14389
▁зерттеуші	-14390
▁дамытуды	-14391
▁менде	-14392
▁YouTube	-14393
▁Вашингтон	-14394
▁Лев	-14395
▁өзіме	-14396
▁сыныптан	-14397
▁Редакция	-14398
▁дамыта	-14399
▁жұмб	-14400
▁баспал	-14401
▁бекін	-14402
▁Та	-14403
▁Желі	-14404
▁атқарылып	-14405
Кім	-14406
▁менеджер	-14407
▁қашықтықтан	-14408
▁бөлімшесі	-14409
▁интерн	-14410
идті	-14411
▁наш	-14412
▁бұлт	-14413
▁жіті	-14414
▁рентген	-14415
исті	-14416
▁дәнді	-14417
Әлеуметтік	-14418
▁Ирак	-14419
ЛАН	-14420
▁Айн	-14421
▁жетілдіруге	-14422
▁газды	-14423
▁өзектілігі	-14424
▁ішектің	-14425
▁Алға	-14426
▁шетелге	-14427
ИА	-14428
▁микроб	-14429
ағаны	-14430
▁ауруларды	-14431
▁Мем	-14432
▁Өзгер	-14433
ви	-14434
ina	-14435
▁ауруды	-14436
ҒМ	-14437
▁қойнауын	-14438
▁Куб	-14439
Қайрат	-14440
▁шығыны	-14441
▁қалуға	-14442
▁ШЫ	-14443
масының	-14444
▁центр	-14445
остер	-14446
▁гепат	-14447
▁шәкірт	-14448
▁оқылған	-14449
ларыңызға	-14450
▁тұзды	-14451
аттарына	-14452
▁таңғал	-14453
Мұр	-14454
▁қажеттіліктерін	-14455
▁қажеттігі	-14456
▁рецепт	-14457
▁сырын	-14458
▁Айтпақшы	-14459
уст	-14460
▁тасы	-14461
▁амбул	-14462
▁ақпаратқа	-14463
▁мәтел	-14464
▁пенде	-14465
▁Андрей	-14466
▁бақылауда	-14467
гимназ	-14468
▁сақтаған	-14469
▁үйренуге	-14470
▁жарып	-14471
▁көрсеткендей	-14472
eng	-14473
▁Мор	-14474
▁құжаттың	-14475
дарлы	-14476
TM	-14477
▁құрлық	-14478
нені	-14479
ұрлым	-14480
▁Қолданылған	-14481
▁күллі	-14482
▁жүргенін	-14483
АҚШ	-14484
▁арқа	-14485
Лог	-14486
ынады	-14487
▁нәрселер	-14488
▁ЖІ	-14489
▁материалдардың	-14490
еть	-14491
▁дайындығы	-14492
▁шақта	-14493
Бер	-14494
▁нысандарын	-14495
▁сыйға	-14496
▁Co	-14497
▁жанармай	-14498
▁метабол	-14499
▁процестерді	-14500
шісін	-14501
In	-14502
▁аю	-14503
▁елім	-14504
▁Шыр	-14505
▁маусымында	-14506
▁тұлғаларды	-14507
песе	-14508
▁реформалар	-14509
▁жеген	-14510
▁қорлар	-14511
▁көбейді	-14512
▁Азияның	-14513
▁образования	-14514
екет	-14515
▁деб	-14516
▁шарттарын	-14517
ландия	-14518
Наурыз	-14519
NUR	-14520
ug	-14521
▁ойнау	-14522
▁евр	-14523
рас	-14524
индік	-14525
лян	-14526
▁дереккөз	-14527
▁дизайнер	-14528
▁балуан	-14529
▁ату	-14530
▁тұлғаға	-14531
цию	-14532
▁сәйкестендіру	-14533
▁Аурудың	-14534
▁зияны	-14535
▁қайтқан	-14536
малары	-14537
таудың	-14538
▁енгізді	-14539
▁лагерь	-14540
Байт	-14541
▁Бүй	-14542
▁Аяз	-14543
▁береке	-14544
▁зон	-14545
ЭК	-14546
▁Зият	-14547
▁құрылыстар	-14548
едиялық	-14549
▁хабарласып	-14550
▁куп	-14551
▁кеттім	-14552
▁мырз	-14553
▁шықпай	-14554
▁аккредит	-14555
тармақ	-14556
▁министрлігіне	-14557
РА	-14558
▁бөлісу	-14559
▁Әшім	-14560
ырғы	-14561
▁балабақш	-14562
ектур	-14563
▁микроорганизм	-14564
▁алмаса	-14565
▁кафедра	-14566
▁ПО	-14567
▁ЕҚЫҰ	-14568
ФОТО	-14569
▁Музыка	-14570
▁декларация	-14571
Су	-14572
ПАР	-14573
▁пішінді	-14574
аданың	-14575
ультур	-14576
▁пысық	-14577
▁тақтай	-14578
▁истор	-14579
▁дәрет	-14580
ЕТІ	-14581
жабдық	-14582
▁аймағындағы	-14583
кетбол	-14584
▁Аса	-14585
▁Олжас	-14586
▁Әул	-14587
▁инфекциялық	-14588
▁макро	-14589
▁ауруханада	-14590
▁рейтингі	-14591
Мәдениет	-14592
ымызбен	-14593
▁сабақтары	-14594
▁атқан	-14595
▁ордасы	-14596
▁Ғалымдар	-14597
▁параз	-14598
▁қанатты	-14599
▁исп	-14600
▁рухы	-14601
кольное	-14602
▁жұмыссыздық	-14603
▁шаңғы	-14604
pl	-14605
алғашқы	-14606
▁өлтіру	-14607
убликовано	-14608
▁зерттейді	-14609
▁ҚМДБ	-14610
оры	-14611
▁имамы	-14612
инов	-14613
лауы	-14614
▁қағазға	-14615
▁отырғаны	-14616
▁көрнекі	-14617
▁радик	-14618
ілсін	-14619
▁қалалардың	-14620
▁арен	-14621
▁басталатын	-14622
АЭО	-14623
▁ашар	-14624
▁жапырақтар	-14625
▁Пав	-14626
▁штам	-14627
▁піскен	-14628
▁МЕМЛЕК	-14629
▁наурыздағы	-14630
▁Фун	-14631
Сақ	-14632
▁еуро	-14633
▁түрлерімен	-14634
▁аптадан	-14635
Псих	-14636
▁мекені	-14637
ДІК	-14638
арод	-14639
▁Танымал	-14640
ағатай	-14641
▁әйелді	-14642
▁тәрбиенің	-14643
малық	-14644
▁саңылау	-14645
▁жалғастырып	-14646
▁ендігі	-14647
SO	-14648
▁жәрмең	-14649
еткен	-14650
▁аймағының	-14651
▁қорыт	-14652
▁ережелерді	-14653
▁атақ	-14654
евич	-14655
▁жез	-14656
▁заттармен	-14657
тасымен	-14658
▁тиімсіз	-14659
лив	-14660
▁реформа	-14661
▁бур	-14662
ue	-14663
▁БО	-14664
▁сарайында	-14665
Мәңгілік	-14666
▁Тапсырыс	-14667
ось	-14668
▁етуші	-14669
▁байқалды	-14670
▁Ербол	-14671
әж	-14672
▁үстіндегі	-14673
▁ТІЛ	-14674
▁коммуник	-14675
▁антроп	-14676
▁бірлестіктер	-14677
▁жұлдызы	-14678
▁Android	-14679
▁жей	-14680
▁қаланы	-14681
▁сипатын	-14682
▁это	-14683
▁әскері	-14684
▁балапан	-14685
▁Дэ	-14686
html	-14687
▁орталығындағы	-14688
▁Экс	-14689
▁адаммен	-14690
▁лин	-14691
▁Миха	-14692
▁Түркияның	-14693
▁баж	-14694
ерея	-14695
анға	-14696
фав	-14697
ирование	-14698
▁сәуле	-14699
▁жойылып	-14700
▁көлі	-14701
ung	-14702
▁қазылар	-14703
▁фильмдер	-14704
лерінде	-14705
▁жетіспеушілігі	-14706
ентін	-14707
изк	-14708
▁АЕК	-14709
НЫҢ	-14710
піс	-14711
▁жылжыту	-14712
▁көздеген	-14713
▁ұстазы	-14714
▁органдарға	-14715
▁кок	-14716
che	-14717
▁жерлерінде	-14718
▁мойнына	-14719
▁фи	-14720
такс	-14721
▁қосатын	-14722
▁тоңазытқыш	-14723
▁әйтеуір	-14724
▁таңдалған	-14725
кесінде	-14726
▁асф	-14727
ағасыр	-14728
▁Intern	-14729
жайлар	-14730
өлдір	-14731
▁көзімен	-14732
▁сипатта	-14733
▁Жұмыстың	-14734
BA	-14735
▁жерл	-14736
▁көршілес	-14737
▁оқиғаларды	-14738
▁енгізуді	-14739
▁жөндеуден	-14740
▁рацион	-14741
бетова	-14742
▁Ұлттар	-14743
лауды	-14744
▁Мақатаев	-14745
▁Азат	-14746
бил	-14747
▁тілдерін	-14748
?..	-14749
▁мысалдар	-14750
▁кубог	-14751
▁Жауабы	-14752
▁пысықтау	-14753
▁аспайды	-14754
иял	-14755
ӘК	-14756
▁сүруге	-14757
▁бірлігін	-14758
▁цифрландыру	-14759
ЛІ	-14760
▁шақырылған	-14761
иси	-14762
▁Сейіт	-14763
▁глюк	-14764
▁сұраймыз	-14765
егет	-14766
▁Эд	-14767
ула	-14768
▁Кат	-14769
▁сөздермен	-14770
▁күшімен	-14771
▁мектептері	-14772
▁ӘДЕБИ	-14773
▁өзгертілген	-14774
үлкі	-14775
▁практик	-14776
Технология	-14777
лама	-14778
дина	-14779
▁жатқа	-14780
▁сүйіп	-14781
▁Тауар	-14782
Жам	-14783
гебра	-14784
ость	-14785
бой	-14786
ханның	-14787
▁қаласын	-14788
▁тармақш	-14789
▁кілті	-14790
гендер	-14791
НЫ	-14792
▁өлеңін	-14793
▁қозғалды	-14794
▁айнала	-14795
▁тұлғасы	-14796
▁индустриялық	-14797
▁теңізі	-14798
▁Әкем	-14799
▁Жаңар	-14800
▁жүріс	-14801
▁зерттеулердің	-14802
▁дүркін	-14803
▁әрті	-14804
▁тәжірибені	-14805
[...]
